memory_initialization_radix=16;
memory_initialization_vector=
307bae93af57b09aa99fabe8135e29c1ac6bad56a85e2245aad39f03aef4aaef,
26bb2c11ad76b097a405a77aa912a244942cb015a8aeacd72bb11dfaa747ac90,
ac01a5b8a6aba11eb09f28c5aad1a869a5de252ab0762c08a8b9a9ce2938280d,
a5742e2320c92bea1ba8ad09b181aea92293278a211e2c503141a88a33c72b03,
201a2e4b2eeb312e2a7932db2d7332cc278326532c6c2c73305e285b29bf287b,
2b9a2de79a9f2b6e2d6225c9a4d1309532fd2f98a322af3b3008ad5fb09eb03b,
26af33d92682a720a4cba6e91f74aa0b20c4a40ba229269b2adcab2029822924,
2b1d18c79470a91ea741274d13ba29502470ac42b12caead2dbba7ddac7a2cde,
a123b0c1ad93adcd07401a4929deb02e2e642bfdad5d2ede2bbf2c8fac9a2650,
ab3aa6502e50a2e99fb8281ba28ea86c9d432830a74f24c7a735269e24890d5e,
259824b29cc1a1dda0749641a1d2246e1c4522a0287f9cc8a9a4a53fa14c18b8,
20b1245ca888a6899dcba84c272520501d1a26e2262f2820a59ca16ca73a2631,
a5689d74a1489d7d268e9658a6ff285da171220b801d29542a872ad9a99a2906,
a6e5ad25287ca9642b79a6a8218f0a38aacca7100f232ca72afb2a80a9fba2a3,
af03a4ce2a6b28092caf1d48adb6a8dfa39b266825809c0cabfab087b103a472,
28ab2b6528251935a9eca4beabafa987b12a9b1616a3272b276e98bca70c28e0,
254fa8c92868a136abaeadc3105b96b8a1002703ac72aab6af67aa9da9dd2026,
a87e8f2da5caacd4a5f7b14427b5a8519b11a2b6a6be2a0b1e2c8d4829da2e65,
a833adf2254d29b22c222e71ac2ea82022b728d42b54adefaddbb0912b842aa0,
2cb62ec0248121aaab4f23d327a2262c29da2969a803b2bb21d82c1d2e342833,
a8532e87af182b3423d6abc9a1b026f0319928de1fb6a72fa88d287aaa0f2e70,
b313a2dbab9eac0fad3aae212d2fae592a2fa8212f522f352b59b398a55b2495,
29c3310e31042de1258caae59fa4292e317d2b3daeed284c1d512ba2318c3021,
ad7726a2ad3e2cb2264524a22a8225daad2a9f0c2c47af022e9a3010301b274a,
b1802e492e742510ab62242ea459acb5978f2469a5eb28ec1df60c3babc62a15,
2a8212d8249c9a172169a3ab9fcd25d0243ca697a5a6a37d2000aa5129971487,
244126141e7ea7b5a70ea9a8a2b4a70727f7a1a5a838ab7199b428301fc41531,
27381f86a8dbacbe2c652bd426ee28771c34b032aca72c49af36adad2f1bada9,
310d2e222d8230e52dcb2731a6e024efb09d2d06297333522c7b327a29022f36,
2bd327672c92313eafc4aa03aa0127e53091a9b1a71f9e832c4b292b15ad307d,
2c8729f1a94523eb20dca85fb38dacd6ab9aadbe28cd25f0a22ba6a72a04a5b6,
ab8d28aca7bba1632743a8011dcfa8041da51df5294d25e3239ba70bacd110f9,
27c12b002be1a686251aacfaa1cb263d1fe9a616a898ab96ae67a6181e0fa3ed,
aa1ea6a3236aaed8ac7ba763aa4c2484aa9ea63524c4a5ed28648f0d2da3285f,
a4ca29829c7fad17a2002c7eb0322a3b18c1b0c7afba1e9c2ac426b6a33fa933,
1c7bb093ab81b0c5a20aa73ba8ac2f33a8cb1c01b15bae012afa2aeb2dd52970,
2ce129492c2d2d3e2dd42b38a42ca90927422d8c2cb1305b22f82e17a8499ee6,
9d48af71ac021d522c012694a970a502ae7fafac1e6ea017a741274fa9c7a82c,
acd42ab22b7fa8982827acabab32222a279d2c88285a996c2d83ae21ab112572,
233928c8295420c5adc7aa729318a6d4a2ec2e52a471ad632f13ab11b134b168,
b275b1fcb225b15eab132ec6a21ba4fa2e8a2139adb0ae87a7fe2f052ba82edc,
29fd2ba320dc31a42f1125782deb30942dcd268e2af0301ea80e2f719f3a2f10,
ade1279d2b2c32f43049a4d8ae53b36727e72d1e30c1a57d242da3849ff4a55a,
ae57b213282eaae7ac659519aa5fad8eaeaeabe5b3be3135aa9da8a2ad002976,
b127a350300e31cca9a827ee24362ca323713113af6eaa3a2d5faa77acbb26dc,
328d2c76a69ba5cd2574a8fba85f282ab130a59bb202af362dbf2cb03005aefc,
a9f1aebbb219a2a4242314a92bda2b5ba929b050213bb18e15bc27d92c76a6b3,
aa45a40aa644a9c030cd2fcf256d29722469ac0fa71caa362ccc2cd82b1a3090,
2c562a7ea25e2ea02f1127c126e3b140a3deaf37ae8f98a523962520b025ae28,
aeb42d942e4b302628a62dc52624a4f928c12ea22d1428e42c4424d130262b8c,
aa43ac2a2a2830ea2b032a26297fa36124202f3528f626d6aad5266126f52ed4,
2c902caaa17f24472fdda38525f62a8ba27da46c3121a7ac2ac52a8fac2e267e,
a80eae869abba85427842f2431632eeda8fda94a28edaca9b07fa174b33ba75c,
a75bad19ac91b111a636b2d0a8ddb205ac4dad10ac2dabc3b15baabbac90a4ed,
a86faf509b4ead90a91ca27e28ecafb0b1a8ad61a0812e61b0072cb02fe62fa2,
a09ab457a913a610a65e2014297c2678aa659e5b282da083adeb288b2566abe4,
a6efa50127702240a6c8a8ff2550aac0a8b328da314b3114a963242f2b8cad93,
1ef730552d3f2c2d27352898a9bf2fd1b029a6122d31ae2aaa31ac5a2c0293e9,
2ca12839adcba38aa85427f71c9119c224d31ef6902f14b2a58020d8a49e26ea,
a8271bf8a7191ea00c06a7842586274518249d72a69fa9082720a50899168f4b,
9c69242fa23127d0233192b41f02a6c11f1a263926c5281ba51aa6ae287d250d,
9e199f222204a430ac8fa91b2328a8ea2802909f9d57a44fa260a8982b3aaaee,
2ad92aaca4c6296ba97b287423bba8862861a351a32cabdaa67dab802b8b239c,
2c249869aa86a405aa2ca0ec2d1a2abba429a6d6a81720322681313231912bad,
a09c9e8dab0926319f4f206929d52cc2311d277520cfa92aa8cb27d81e6ca92e,
9d37a4c0a81322ef2d382d0f1b63261c1ffda5c3292e2a812efa298628cea9b8,
246f2121a8412d6e24a63100a2ec2bbda86422a8253fa95b24b3226fae0facd0,
243b2ef29437a34da6e9ac7f2f652ae3ab962069a13428ad2ee12f7aa0a5ac48,
ac8badf4ac0924b32816aa4b22f8ac02a9041e2d274232a5a6c4a84babadac61,
2c75accd303aadcea04426e9a651ad5db124a85c281027131889a8b02da3b0ec,
325722ff279129a32c8e2dd6a92d2dc81bcd2c2ead2eb089a86032ba279faa53,
1de3af9eb0c1ade8a4c12ae1965aaae2b18596bc2ec0a81a95ebaccbb02bb0b5,
2eae989726a0afb1aa0e8e92a78311ed2ba02104af312a99ae24b11fb1cca90b,
31d5af15ad47ac612f411eaa25242ea4a7aa2842a042aae4248ea8732c70a870,
1bd3240b1e0c19bd27ff25fa1fdaa598a84aa8f02b6a20d82256253a1892a99b,
a5302239224a25fe23812892a7d5a5bb9c1824da9a8028bc9cd71691930da482,
a6ba25fb223a2d93ac10a91fa82ea8c0983d2fc82e4faae92bbc2a36ae312935,
af76acf7ae59b06aac7da88ea2b3a9a92de5b052ab15b27cab7eb20daacbaf43,
ae02a616a9f5af4c30102b732efead36afb92b2720a4a709a940a6f99ca0adba,
ad7cac7b8602a9081a072a4d340e307e96a02d18aa2c23e128ae2c0eaa842452,
1daa24812cfeaa0c280a9ec028b32c06a31127cea99dac0425482b1629fe241d,
a676aa1e9c8aa86112e62924227825c1a99c291325f72ab93028230998b52b1e,
2cfb251229df2d802b199b2e2ace29bb1edc9975a5fb928a26129ddbb020ac87,
a4861e95ab982c3da44eab6e2f81ac11a15e30492fcba7e0a9819e1e246b9c96,
9a172ee42e0f30dba50f2acd2db4ac5e2ab41c4a311c2d17a8051ed1ac8aab6f,
aac1a6f1a79aa8d5ae4eaa0b24f729b3a985ad6eaf1fb13aa4f6ac181931226f,
a1b82f9c2968a320ace7a8e918ff28632af52f85a1aca968236daace244f2cef,
2cc4aa02ae1c29a79ad32e152ab127caaccdae59a7e91478ad2b2d0b2d48a835,
a8f5a5dba57727572b012a992c2a9d3a24adaa5e2a562d10afbf997f3098314f,
31ef326f31a331c72b0cab5e19bf298caeb3292b2be22d11a4baae00a1beae46,
ab4ba72fa760b138af5da582acc2af9eacd6a83fa817b0632589b014a920aebd,
2f0b994ca818b1adb24922d428da31c0a0b1a5a7b06e2c1aa1ba2c032874a2cb,
2b6331b5a9d329332c8514312bea2e0b2f492e8d343db13d288b2b532b0ba4c0,
319829fcb112b1c92913268fa71aaa029f24afff2e3f2974ab3326d6290cad30,
b1cdac30246f2717aaf02800284ea77632be24b531772e21ac33a42eb0ef2d4e,
25312c96330c24a82430a81caf1aa94d2a5730b4272c31739a35aa57a899247d,
2c501b4225142c01af15afa416a0aae5ab052e249f292988aebfad8ca816b0d7,
ad63a3e1aa23b044af27a9cda59e30c22254309c291fa39b253328032fac2dad;
