memory_initialization_radix=16;
memory_initialization_vector=
0000
0000
0000
0000
0000
0000
0000
0000
0000
0000
0000
0000
0000
0000
0000
0000
0000
0000
0000
0000
0000
0000
0000
0000
0000
0000
0000
0000
0000
0000
0000
0000
0000
0000
0000
0000
0000
0000
0000
0000
0000
0000
0000
0000
0000
0000
0000
0000
0000
0000
0000
0000
0000
0000
28fe
2a94
aa25
2e47
1dd6
2b24
acf2
2c42
2d6c
a9f7
24f7
b1b0
31c3
ab2e
a64c
2cb1
3268
2eb0
b3dd
b516
b24b
3015
344d
1988
b96c
b549
2225
2cd0
33d3
31b8
333b
3116
33ee
30da
2bc2
975f
280b
a539
35d1
b050
2604
341a
b368
20a9
a5a2
2f0e
30c0
3313
320f
32e4
3262
2c4d
32f6
34d7
0000
0000
0000
0000
0000
0000
0000
0000
0000
0000
0000
0000
0000
0000
0000
0000
0000
0000
0000
0000
0000
0000
0000
0000
0000
0000
0000
0000
0000
0000
0000
0000
0000
0000
0000
0000
0000
0000
0000
0000
0000
0000
0000
0000
0000
0000
0000
0000
0000
0000
0000
0000
0000
0000
3536
317a
33e2
35b7
a0f3
319c
abfa
abcf
30ab
a92f
8f11
2b74
ae5c
b350
b1e9
b1a7
acb8
26dc
3703
33f8
aacc
342f
b4f2
ad61
31ab
b84b
b05c
344d
ace2
2a8b
3478
a594
ae57
379c
247b
ae75
26e1
a73f
2b28
aeb8
b089
2b9c
b20d
a5ad
a186
3026
3401
1829
2dfc
345f
32be
31fd
2cf6
36d0
ac40
27ad
30da
ac6a
afec
b15a
242d
b467
b5c5
2678
317d
30ef
30e8
ade4
2719
a54f
1f89
21f4
381c
2966
b0e7
3643
ad0c
ae46
3375
b402
b312
30ea
aad9
2d7d
a626
a98b
33aa
2f49
a8bb
29d5
32ed
30ba
af5c
31cd
17ca
aba5
33c2
2948
ac4f
b2ca
2fe5
27ff
2bb0
3236
a4d9
2c13
314b
c8a
b33d
ae74
b13b
ae1e
ae13
b440
b047
b069
b48c
1ce2
2f26
ae50
ae16
ae88
1558
af7d
2e6e
ade0
b2aa
ae29
2698
ae09
b36f
b269
b580
b558
b623
3602
3444
b4cb
2cc5
328e
b5f0
31a9
322a
b36c
0000
0000
0000
0000
0000
0000
0000
0000
0000
0000
0000
0000
0000
0000
0000
0000
0000
0000
0000
0000
0000
0000
0000
0000
0000
0000
0000
0000
0000
0000
0000
0000
0000
0000
0000
0000
0000
0000
0000
0000
0000
0000
0000
0000
0000
0000
0000
0000
0000
0000
0000
0000
0000
0000
0000
0000
0000
0000
0000
0000
0000
0000
0000
0000
0000
0000
0000
0000
0000
0000
0000
0000
0000
0000
0000
0000
0000
0000
0000
0000
0000
0000
0000
0000
0000
0000
0000
0000
0000
0000
0000
0000
0000
0000
0000
0000
0000
0000
0000
0000
0000
0000
0000
0000
0000
0000
0000
0000
0000
0000
0000
0000
0000
0000
0000
0000
0000
0000
0000
0000
0000
0000
0000
0000
0000
0000
0000
0000
0000
0000
0000
0000
0000
0000
0000
0000
0000
0000
0000
0000
0000
0000
0000
0000
a91a
3488
35c8
30e8
309c
aced
3157
308d
b565
aceb
ac0c
af1a
ad77
2924
afc2
b2aa
acd7
b38f
32ba
b394
b59b
34cf
3112
98b9
2f86
36bf
3262
b081
3055
2cbe
a816
2802
1176
2ddc
3171
a208
2469
ada9
b13f
9caf
a821
adba
a906
ab23
a9dd
3334
2cdf
2bc2
35d0
30c8
298d
2e9b
b45f
b07c
b257
b33c
ad2c
ac17
ab6c
a661
b05a
af74
ad20
a790
a9ec
a152
a98c
9e3a
a9a6
afc9
a97b
99c3
af3c
ab63
b5db
b0d3
accc
b4a5
b3f6
b440
ac78
2f82
312e
2c9c
3406
2ef6
9f50
3129
318c
3067
b7cd
b7d2
b492
b56e
b5aa
b1d8
b3a4
b1a5
2381
b03c
aea4
acf2
b477
b0ba
b42f
b5e9
b8aa
b602
aede
ab80
ae14
2756
ac94
a680
a91c
a842
a777
31d9
2c72
2d01
2f1b
29ff
2552
a932
ac56
ac0e
339b
315e
ad93
2fd6
285e
b445
aa30
ae1d
b52f
b805
b911
ad64
b57d
b8f2
1789
b250
b8d4
a8ac
b1ee
aab5
2c81
aacd
a805
a3c2
2faa
3051
3056
b494
b4e0
b0f0
b7b0
b488
ad7b
b7f5
b6ab
b13a
2d1c
2992
9657
2cc5
2a95
1a15
2fd7
2c6b
2eb6
a6d0
a3b0
2eec
a3a0
21bb
aa50
b329
a9f3
ae0f
ae1b
a80b
aa9a
9473
aa6e
ad09
abd6
acfc
b01e
a8ff
ab9d
ac93
a813
b17e
ab50
26ea
ac11
2904
b66c
b738
a841
b419
b618
b2e2
a257
b4b2
b5b0
aba3
a9c3
ab7c
2303
13b7
ae32
ab71
24f8
9efe
3128
2baa
2836
2a85
a5ad
27ba
32db
3027
3157
b1bc
2724
2c3e
b012
293b
2df2
a8ab
2eeb
32a7
a5b4
2e64
a2a2
a157
ab0d
2dac
afeb
aa96
a389
2d52
2bad
a46f
2417
2a34
b0de
a9ee
acf8
b413
af75
ae84
a8d7
ab9a
aee0
a72e
ac07
a7e4
b00f
a8c2
ab43
cda
ab28
acb4
9ff0
afe9
afbd
280e
b1db
abb8
2856
b2b1
a754
2f02
a7b8
b0cc
3090
a72b
b0bf
b60c
9cf2
afd8
b51d
29a6
ad96
b6e9
b844
b84f
b634
b49f
b287
1f00
b4e3
a900
290e
b38a
34e3
322d
b474
3312
2e3a
b391
3458
25df
3514
2f8a
b4a9
3538
2e07
b5c7
3305
b1d8
b855
a947
ace4
b01f
b451
af3b
b0b7
b93a
b5d2
b256
ae51
a3b2
acf3
a076
2c4c
ae8b
2bd6
ac7e
a0da
b0f6
a855
af9f
b20c
9148
ae21
aa3c
ae57
b422
b003
3522
214f
b16f
30d6
3210
b089
2987
326a
a0e7
ae28
847b
9c26
ab24
ab01
a863
adff
ac44
b631
b5d7
2a0b
b5da
b0d2
b470
b9a4
b5fa
b91d
b1d9
b806
b842
a631
b444
b6a8
283b
2125
b359
a70c
3028
aa1d
ad3d
a730
b23a
b688
b4ff
b46b
9c29
3467
32da
2436
3461
2cf7
33b1
349f
a463
ad88
a4cf
af30
20f6
1589
2540
9ce7
ae8f
abf4
b73f
b611
b5f6
b95e
b77b
b869
b954
b7fd
b81d
b2bc
3511
2b90
a8e9
aaeb
32a7
2331
b1b0
adf1
3580
296c
340b
34e4
30af
356b
3450
354e
3608
b7a1
b971
b81e
b081
b714
b757
2d52
b479
b29b
3478
3448
31f2
36d5
3463
2b6d
9dfc
34ae
a967
29d6
38ce
28fb
a8fe
385d
a0ae
b06c
3655
30b7
343e
2d72
b9d4
2f3f
b2fe
b8cc
2a4e
b839
b9ad
ab96
2992
aa3f
ab99
9e31
ad6f
1e84
a656
2ab9
b473
b52f
b58c
b32d
b48b
b45e
a80f
af04
25ed
31a6
356b
30be
3018
3586
3662
a64d
3305
35e5
a9c7
2831
ad17
a97b
ac5f
2a81
adac
a129
22a8
20eb
35fe
afc1
aeb5
3641
a771
aef1
3262
3193
2e64
2c0a
b0b8
3346
3000
b218
381e
2dd5
9f6f
35d5
b46d
bae1
2e48
b632
bb67
2162
b375
bc21
322d
3868
3347
34d0
37b1
362b
32cf
351c
38a8
2af7
9d0c
ae03
2911
1cf5
a99b
9f61
26ac
ad22
a577
b461
b0c4
2711
b495
b5c4
b070
b6c7
b68e
38f6
354b
35a1
3442
363a
34fb
aa0c
359b
3663
32bf
b9ee
acbb
af6d
bc0a
b522
aa33
b98c
b902
30de
31c3
2820
b115
afc4
2a9b
b4fd
b711
b862
aff0
b28b
a838
ad72
aa5c
af26
302f
2e0b
2ca8
b238
1d82
ab74
b034
9a37
ae09
ac03
2cda
2cd4
a9d7
ae79
b1b9
b51c
2403
b15b
b83d
a843
a4f2
b643
2abf
2947
b66e
ae58
ad27
b44d
2961
b074
9456
2218
3176
2d49
a735
2885
b35e
b427
ad17
303c
2697
b032
302a
abd8
ad3b
249a
b0bf
af4d
343e
2ba3
21fa
2c78
2a6b
2a1a
aeed
b021
21d6
2e9d
2f8e
2e7f
b2bb
b1fa
2967
b896
b1f8
b3e1
b5e4
3170
3267
b7e1
ad91
a376
b62f
b2a2
a8bd
2df8
1d2f
b57e
9ebf
ae57
b57e
a414
b135
ac6e
2c21
3128
3099
2648
adf0
da0
ac08
b28b
a8ce
29a2
a278
adfa
2d1d
b1ac
b2eb
2fd3
a14b
ab17
2b77
311a
2613
ad8c
aa2c
a56b
b318
af52
b460
2af8
2ecf
ad4b
2edb
a2a0
b4a1
2d0d
b147
b8a0
adab
acb8
28e1
ac1e
aad2
2087
a2a2
aa1e
a0e2
a037
a5ed
29ab
a714
2f86
2db5
2741
a49a
2a90
2f8b
26c5
2a57
2015
23e1
2c44
2d8b
2d1e
af04
aa12
1553
aeda
a813
9e1d
a0bc
9cf8
ad4c
2975
1e0c
2c49
acd9
a074
ac09
1386
ade7
ac1a
ac34
a5fa
95a3
2cc4
2d29
a8be
29c2
2e8a
ae0c
2b70
a833
2c8d
ab33
26b9
ae42
af10
afe8
28bc
207a
a86f
ab86
a411
2a59
a3fa
2b8f
29b2
a425
2a43
2a9e
28f2
29c0
28d2
a330
ac6e
9515
25d6
a53e
2d70
a8c0
2893
ace5
2d32
ac31
ab49
acdf
aae9
aa0e
a906
2cd6
2515
2c6f
aca1
ab38
2cac
aafb
ad23
ad06
a612
a52a
ac67
ae45
a13a
2996
a012
a64b
2853
aca3
ad02
a624
a806
2c76
a442
ad55
ab5a
ac4b
2adb
25cb
2c73
2cfb
2830
ac2f
1b6c
a677
2900
9c30
aa9b
2c7f
a4c6
a61d
acc5
27bf
af3c
a5a0
21ea
ad87
24d9
a627
257e
a9aa
2864
2b17
a50b
a77c
a723
ab1f
ac18
abd1
2a9f
a4c2
3377
2e1a
20b3
2c7e
2aa4
acee
a5d2
26ad
9ef5
2989
ab89
2dc0
31fd
3248
3152
2ed1
32d8
351c
2d39
2bd4
ac2c
a5cf
b2fe
b1b8
2679
a078
b466
b034
b1d2
b228
b0c8
af62
a9a6
aed9
ab70
32c9
344b
3038
2e9e
2da5
a994
ad09
acfe
a3c7
b215
31c4
32c9
2b32
a817
2af0
28c0
b174
b1cc
32e7
24e8
2d6b
a82d
282a
af57
b189
aae9
a707
b10e
a731
25aa
32f2
b3ba
2ea6
3093
b335
224d
ac82
b013
b6c2
b460
aee9
b257
acd9
2358
2494
2cfc
ad4a
b587
b2c8
b11f
b400
1d3d
ac77
ac7d
a87f
b300
b057
3269
323f
ab8f
3418
36a6
2eea
2dcd
2a9d
34e9
2d38
2f51
30aa
291b
257b
26d5
2f84
a518
b0c1
b033
b066
9aad
aa7d
a7ce
2df6
2a15
a9b2
b033
9ff0
30db
2e09
260d
33c6
2d26
a997
ae2f
b10d
34e8
ad1c
aea5
3538
33ce
a67a
3087
ac37
1a4f
a51d
a68f
b07f
2578
a42e
ae24
245b
2f5f
3079
347b
b0b3
a36f
3108
b165
b04b
2e4f
a5ce
aaf2
2495
2f73
2b22
2e07
30b8
318b
3218
3142
b4c9
31b9
a963
b2f6
2969
2da1
31e0
af41
b20e
ae27
325d
b375
adda
34aa
b3fd
209b
35e6
342a
29cd
1c23
2885
2d50
ac27
a5b6
3349
2af2
32b9
3413
2d33
aa92
a9af
2840
b7b1
ad8f
30a5
2a8f
a1d9
2a2b
2482
a4b7
3022
2cec
323f
2e6e
b597
b28d
af46
b4cc
ae3e
22a5
b42a
2fd1
a9c3
2543
b0db
b393
b1dd
af29
b4da
9c80
b092
2c13
3097
b626
acca
2c5a
b4dd
b22d
30fd
b7e9
b7a9
b1aa
2667
b50c
ae7a
af7f
b1c4
3053
28e0
b0bc
334a
3377
305e
307d
306f
2cdc
b0a8
2f44
3493
29dc
ab0c
30db
b099
a9b9
3000
16f5
b039
a4c7
9d92
a9c1
b25a
3015
2a2c
b667
2948
2cee
b7b3
3163
2b0d
b6fe
3143
29be
b553
3103
a58f
b55f
a419
a7fe
adc9
a9fc
aeba
abcf
aca6
187d
a19e
a6ca
2cec
28b4
b111
ab17
2789
b017
b074
b282
b8ee
b91a
bb25
b956
b491
b6f8
b9aa
b751
b5b1
3503
312f
b12d
2c0e
a223
af5e
af65
aee8
b441
308e
341c
a2ca
2ca7
349b
2bbf
9b87
31c2
315b
2fa5
2fa0
afb9
b01e
1d6a
ae1f
b055
b17b
a8a8
2f1e
2e75
32c1
2ddf
3191
33fb
af0c
3082
32cb
a4e7
1ea4
a49e
ad72
a92e
ab3c
2505
aa3d
1a02
313e
31d2
2eab
292d
2ffc
2f12
a3d3
a94c
9987
2060
2db0
a6c3
286b
2e7e
2c5c
2e56
329a
32aa
3411
b401
ae74
2a81
b139
a8a4
30ce
23a4
b4b9
2f2c
321c
ac86
acdc
10bb
9e2a
aa05
a923
a73e
293a
332f
34b2
2fd6
31d0
3260
2d8b
2b67
2c26
3038
2b8c
31d5
2f4b
2c3c
a856
ab62
b0ef
b30f
b840
b89e
b86d
b57a
b585
b800
b5ff
b859
b80e
b5bf
b8ca
b90f
b5dd
b1d3
b6a7
b893
b323
b597
b4d5
b72e
b574
b4de
b4b9
b4a4
b61c
b822
b83b
29f9
2cb2
308e
a810
282e
9dc6
ab85
b219
b090
23e3
2ab6
c
2ca7
1e50
a177
26cd
a988
22ba
a9bd
b8a0
b906
b4d8
b834
b887
b450
b548
b6d3
b5da
b2bd
ae63
b555
b1f2
aaf0
b257
b597
b1d3
2a5e
2d80
3132
a8eb
a86b
99bd
afec
b407
ad9f
3188
2dcc
a975
aaf4
a7c7
b14b
b26a
b33b
b4b2
185e
ab9d
af74
ab1f
a1df
ad7d
aec3
a48e
9c97
29e0
2847
b070
b04b
98a4
b0be
af2c
ac20
af9e
b0eb
b24d
a878
ac2b
b2f2
adcf
b2eb
b2ab
b0e5
2192
b40d
b7dd
30e6
b1ef
b4be
352f
201e
2813
a76e
2641
2ee3
b1e2
b036
28c4
b42d
b168
aa0a
a8f5
b609
b7e6
ae69
b692
b7c8
2ae4
adde
b355
aae0
ae41
b141
2726
254b
2b46
aadb
258b
292a
2b08
a886
2d00
29db
ac5b
ab58
2662
2a45
a435
29fc
2d89
274e
a61a
a29c
2aba
a522
2380
a50e
267c
3066
31d8
a3e4
212a
255d
b252
af45
af3c
309c
30a5
33c5
2217
b155
b03b
ae57
2d95
b13e
b20a
ada0
b1d6
2a36
2d15
ac5a
3197
2b32
30eb
2f5e
34f0
3141
a47a
3416
2b8e
adf1
3175
aebf
aa67
2154
331f
30f3
2adb
342c
3098
2b0d
31e6
3017
3091
a829
a0e1
af90
b413
2d1d
a368
b573
b96c
b7ab
b904
b630
b4e6
b610
1bd7
28b0
32b9
ab94
a8ce
aac6
a875
a5b0
1fac
ac23
aaa6
28e2
aa6d
2c17
ae80
b10e
b148
b481
b597
b213
b6ec
2fa1
303e
a7ec
b03a
3203
aec9
a449
217c
ad4b
33dc
b842
32d6
3111
b4af
af22
aca2
b15d
a8d6
acb5
2998
b445
b69a
a6e6
b3dd
b457
b20e
b487
b2e0
b63c
b2ba
ac9b
b1bc
b2cd
2ebf
b06e
1998
32b2
3268
332a
a9e9
23af
b452
b520
b50b
b63b
b576
b5fe
b2a9
b811
b803
aec3
2c48
b0a2
3196
b306
2a33
8f29
b20f
b116
aa52
aed6
b141
ae55
2bf7
a3e5
ac1a
b2dd
b597
2e01
954a
b246
34cb
abb5
ada0
a8ef
2ae3
aaa3
ac03
ad61
ab1f
aa38
a78b
241c
af00
ac1d
a970
ae75
9f5f
2cab
aae5
ab9c
a5a3
2a0e
2af3
23f1
2a41
2c63
acbf
19b9
9fac
9bbb
abac
1de6
2551
10d0
2d21
2c1a
2bfd
a645
acc8
abcf
297e
a4fa
2bdb
2c94
a458
2346
9e8a
aaf2
ac25
2c13
2009
ac80
2df9
ab56
2c16
2c76
2074
239a
296e
2d29
2cfa
1e95
1c2c
2cd1
2c96
2844
2a33
2d36
2cb8
ac17
a92b
a918
acb9
2b99
2cd6
a494
a3e6
2e18
2bc4
a851
2c34
2ccc
687
a7bf
ab16
29a7
24f3
2aca
a37e
a7cc
2c70
ab29
a99c
2158
2aa2
aa20
9203
22ff
2a23
ad62
2b82
9e97
277d
a9f4
2961
a912
a9f9
ae79
2a6e
a951
ade0
22da
aeb2
2949
a8db
2c80
ac0f
2d1c
a947
a2fc
241c
a8ca
a8ae
a906
2c5b
262c
ad9e
2854
a97c
223e
29d0
2ac4
aa08
a7ab
2896
a8df
a4ee
2b4f
aa41
a4e3
a475
2a61
299e
2621
ad09
