memory_initialization_radix=16;
memory_initialization_vector=
b379
a8da
b4b3
aeff
3077
a704
3263
268e
2ded
2fba
aa11
b2de
b4c5
3371
b010
31f0
ae02
327d
aae6
2f7f
aff8
3144
2c45
9af7
b0ea
b207
2ee3
a6c2
3312
a895
328e
31c9
b00d
ae9b
2653
ae9c
b3ee
2d17
1e25
b098
ae35
3164
af32
b0f7
3081
b288
ad64
a8dd
2c3e
ae1b
3478
2f48
b1cc
1b5f
b061
b60a
afbb
af21
b067
add1
a802
3111
34e5
b032
24d7
aec2
afd0
af16
3044
31f7
3019
aa22
aa66
3053
315d
302d
