memory_initialization_radix=16;
memory_initialization_vector=
330b
3181
ac80
32f0
2cb3
aae
2e72
2d4b
b2ea
b5e9
2e55
3188
b521
2ec1
ad90
b391
b53d
b52f
3052
349c
3235
a29e
3568
32a8
3415
29c3
334b
334b
2c79
2a14
2117
2c3a
2d70
abe6
b11d
ae4b
b57e
ac13
b5c3
299b
2cb9
2f88
b47e
b43a
2ce8
2d3c
3561
304c
2cfa
2afc
2c43
3200
3011
2db5
b945
b9ff
b7e0
b67f
ba9e
b763
ba2d
b969
b5e6
aa1e
3331
340c
a5ea
2bf0
359c
20dd
2de5
334a
a861
2f12
a8f7
ac14
a9af
aec2
b273
b5e7
af05
b4b8
b43d
3593
b25b
b50f
2fca
b60e
b4a9
ac4d
37f7
35ec
2f3f
353f
366b
27d5
37c7
301d
acca
3043
ae13
3003
294d
2c43
3011
31f3
ad15
ae23
b4fb
b00f
23f0
2ebf
32ba
343d
b41b
b1f1
b42a
2454
b542
b152
b2d9
b558
b545
b022
b5c9
b399
b45c
b652
b476
306c
314c
344e
b42a
abbe
2c52
318d
29b5
2c0b
30a2
acef
a512
b11f
30e2
20ea
ab7d
2ca2
30a1
2e91
b005
31ed
ae01
2c50
ac46
a8fb
ac74
b224
28a5
ab8d
afdc
1881
a939
a925
308a
acf8
307e
a986
b297
ae53
adb1
b12c
b63e
2c06
acef
b44c
2fb5
afd9
abdd
31c8
3034
1909
9fce
354d
9ee2
ac22
350b
af22
b252
2e1e
b4ff
b6d3
b302
aa8a
b3db
b488
afe6
b495
b431
b4ad
b0de
afdc
a9eb
aba5
2f3e
24db
b0d1
2ad9
2692
2b0e
3002
2947
aab5
ad93
aeb3
3356
ace0
31cf
b0ee
b160
2dd7
ae5a
a8c0
3012
ad12
b042
a0aa
ae9e
ada6
b55a
b04c
ace5
b657
b31f
b1c9
b486
aa22
a925
2e26
a87f
a56e
2c42
b07c
b853
26bb
a6e4
2e07
3242
2b56
ad43
2e94
2f80
261c
a905
9cb3
20fd
a4f7
2d23
ad31
a887
9acb
a648
3246
b7e1
2e8c
2c6c
b9ff
b041
3370
b972
af34
35b3
a871
30a6
3173
29ec
3043
292b
3081
a80b
3027
b02b
aa11
ad47
ac86
a864
2cb2
ae2b
acbe
ac1d
9f74
b076
b1b7
2e96
29e3
24a3
3176
2bfc
30ce
3396
b1aa
a990
34d3
103c
b488
3430
ae61
b469
313e
3264
ad61
b091
1a75
a6a2
ac7e
333b
ad83
2103
b06c
b3c1
b3dd
b4be
ab16
2cd8
2f57
2981
b41f
ae45
b3bb
a969
26d2
9d92
3087
34dc
293e
312a
21c0
21e6
a983
a3dc
2c72
b27e
b38f
ad9c
1b14
b10a
ac4e
abbd
a283
257c
abe7
a875
b0c0
2d52
accf
1ebb
2d5e
b45e
3329
2f03
ac85
b083
3102
3060
2ac1
3044
2db3
2a14
9875
af16
ae5f
2ea3
3124
a5bf
2fd9
24ce
b214
304d
31dc
91e3
b4f2
30d4
30e7
b03b
2dd9
220e
202d
328d
a1f3
2909
a688
22b1
b337
2ba9
3486
b585
2e2c
31d3
b390
b1c3
27ee
acf8
b0e8
aa0b
b040
a324
2eb3
348a
2c6c
b557
3415
a0e5
b4f8
2146
1618
af3f
24ce
21e0
ae77
31aa
2ffa
ac20
b1fc
b0b3
b08f
20be
2093
180a
add9
2699
afed
af9f
acc4
ab4b
b42b
b041
b041
b765
b274
b310
b1f1
b089
aca3
b33d
272b
2865
af9c
98e3
2d56
2e7f
aefc
31bc
b1b2
a87d
b2bc
b002
245c
b12f
24ad
a5af
b0a5
aa4d
abf3
ad92
30a8
2abd
aba4
b46e
ab8d
2840
a943
b4fc
b650
aa3e
b017
b437
24b9
adcf
b0bc
b22f
9cd3
3037
aaf4
b289
ac57
b11a
b31c
af91
a256
b18b
a86d
a49b
ad77
ae55
8d4f
9ab5
b182
31ee
b018
af7c
3347
af6e
af04
3184
15c0
9c7e
20a2
b819
b1d9
35f0
b287
3048
30fa
b65b
2f23
aa49
94b6
ace1
b037
af7e
ad7f
aadc
a9d8
ae61
3362
32f5
31fe
3057
267f
3193
a32e
ac08
274a
2960
2fc0
2d88
2f88
2ccc
2e38
3265
2c32
2a33
b46d
b09f
a9e9
b40d
b098
2837
b544
accd
2ccc
2f68
aa68
b302
ab4a
a65c
b293
b2ed
adc7
b42b
256f
ab95
b00b
2b19
2825
a707
b02b
1b3c
a816
2daa
2b92
349a
a8b4
ad2c
ad41
2572
ae15
ad19
b2a9
27df
20ed
b6b0
a1e4
2745
b79a
b089
30f8
a72b
b3c9
a78e
3242
aeed
a8b4
35eb
3214
2f56
a4b6
a524
a8a4
29f8
a133
2403
26bc
25fe
a272
acc1
ac70
2a81
aa83
a6d6
a11d
2971
ace2
2c1f
2c5f
ac5d
aba4
2bbc
aafa
2a73
2950
1d3c
a944
2dcd
2090
aa2e
28a7
2b8d
94a6
a62e
27f6
a978
2ceb
2b39
2cae
aa57
a483
acc2
a4c7
aa90
a91c
2e36
acd0
1d4e
2783
2348
1b59
2bed
285d
2b73
ab3d
9f6c
ad61
9dcf
a353
a5bb
abee
2b91
aea7
a690
ac1e
95d9
278a
177b
ad23
a9fe
ac08
9ca9
28e2
2793
2217
2c8c
abfe
a7ea
a5e6
9f43
aaf4
245e
2587
a8ba
a376
a8bb
2d9d
1ed4
25b1
26f5
9e11
1f89
2b5c
a717
a952
1da9
a8cb
263b
27ef
ac2f
239d
a837
ac12
aa42
26f4
ac9f
1c9e
aa95
ad02
a677
a3ad
abea
2c18
2768
2b0e
2cbb
abfd
a824
2974
acdd
2888
aea1
2565
293f
9c0c
af01
a764
a1cb
abb7
abf7
2a48
a638
2816
a81c
ad98
29db
abf5
2cda
28df
9d22
ac0e
2afb
a51a
8e7a
ad8e
3107
a02c
3429
3538
aa20
374a
368f
2c19
2f82
346d
3428
a4b3
32ef
3292
b6fd
2e79
3414
322c
a34a
b8ff
321e
2054
b346
32b3
3046
301e
b90e
ba9c
b996
b451
b930
b8c9
b8f0
bac2
baf9
a8ed
ad17
2a5d
adfb
292a
a502
a96b
a743
a44f
389c
b4d9
2d6c
3946
b751
3155
381b
b4cf
3046
aa08
324c
ac53
9c8b
28de
2d62
af3c
b422
357d
2300
ac86
ac4c
220c
2a91
2839
9c7a
1bf3
a5fe
b10b
23ac
b395
29ac
b55b
ae63
32cc
b611
2e00
2b6a
1b6d
1fe5
3174
2dae
2ec2
35c3
33bb
3409
b489
b769
b9a0
b8cf
b8e8
b7be
bb16
ba0e
b133
2c20
adcb
b934
b05c
b34d
b974
b80a
b558
b3de
258f
af4f
284f
268d
aa90
2abb
9de2
23cb
a83c
b477
b5fe
b004
b136
b43a
a151
b63a
b189
b07e
1d3b
37dc
340d
b538
37f5
3347
b6ad
33e6
3580
2df8
3465
2f08
2fd1
2c16
2ace
30ec
ae6f
2414
a3d4
a83a
accb
2ec8
2a80
2f70
2dd7
275a
1f6d
b5bb
b4bf
ad06
a9a6
b317
b2bf
a73e
b3e6
b623
a952
2e77
ad80
2d76
2cf5
b0ef
a99e
1888
b4b4
28cf
ad9a
a478
310b
2e46
2d29
2f3b
2d46
2aea
a5ea
a913
a638
24ee
ab59
1ef3
200b
ae99
acaf
acf4
abc8
b534
b20f
ad88
b4a4
b555
b6e2
b8cb
b3b1
b7dc
b4b6
b1d6
b3ea
b4a6
ac1f
aec1
b19e
acde
a715
aa18
1d33
214f
2602
ace9
9e4f
a46d
ac68
3457
356f
b017
28ff
2bbe
b5b4
b14b
2a0f
305a
2cf8
2fe4
aa5d
b6e
afb6
af7c
b326
b5c0
307f
2e40
a27b
2f1f
a771
2ef7
2ca7
2a16
2526
af26
aee8
29ff
b3ac
b049
2d97
b0e9
afb2
2ef8
294c
a371
2a94
adec
aed5
29d2
ad70
a591
ae34
2497
2f98
2cf9
b1af
adb7
2761
b33f
b445
b0c2
af10
b60a
b63d
1d6e
b29e
b449
327d
a9cd
b27a
2b70
1aa5
2ce5
b123
a844
27de
b426
ae00
2968
2e17
2b04
a838
a46d
2ee9
23a7
2dda
a2fc
b0c0
ab46
a72c
99e8
a43c
2e03
243d
2d86
3234
2f8a
a55b
2ce7
2d6c
2d49
3163
2cab
2fe4
314b
2c9b
24dd
a563
b623
2213
3121
afca
31f6
319b
b4aa
a710
3113
2ecf
b16c
2c5e
3016
b49e
aa43
ad80
2a87
a6fc
ab86
3087
2679
b0b2
3112
2e75
b21b
aa0c
2133
ac1a
9809
3002
24db
2e98
30a3
20b0
ad13
a52f
2df8
b14c
2467
306c
a918
25a0
303e
abac
b121
3067
a89d
21cb
311f
2efd
30c6
aa18
b69b
b2f6
b812
2a42
2812
a6d8
34de
30e1
2ee1
2ca1
322d
3441
ae67
2c7f
3152
b551
b50d
ac28
b76f
b669
2e69
b373
b673
33d3
ac8b
2d4c
a75c
ab97
ad8b
a4a7
ae88
3095
b047
aa6d
2d39
b2e6
a97c
290a
3184
b21c
2b25
2c97
b183
af3f
ac20
26a8
2f8c
341e
b383
2eb8
322a
af89
b2f3
a8b4
a654
abed
ad50
abd5
a9e5
181a
2205
ad4f
af0f
a0c9
25bb
29d3
19b9
ab9d
2c51
a7bb
abfa
265d
9a37
2c44
a82b
305c
a89d
2bae
9a41
a758
a046
27b5
a5cf
2806
a148
adcb
adce
248d
27a8
acfc
a8db
ae5f
2d40
25ff
20c7
1e6b
aaca
2b6f
242b
284a
9e65
1c19
1580
ae67
20e1
a598
20a5
2b4a
a9ba
2768
a3d2
2393
ad88
adfd
2570
25d8
a4f6
2c0a
aca4
ac57
283d
2938
af6c
a8c6
abbd
ae1a
2b1e
29ea
a3bf
2950
a970
2b3f
205d
28e4
a819
29dc
ab2a
ae11
a8d8
2c03
9ce9
95cd
2890
3017
2b76
aa92
a201
2996
a9c6
a8c3
ac8e
ac4c
a64b
ab90
2eec
2956
2bf0
2602
2e0b
ab04
2a75
f9e
25e4
a0bb
ac0e
1682
29f5
ab96
afb8
2dfb
a812
ab37
2b42
2d3d
2a06
a533
222a
aa2b
a90a
2ba4
27a0
2942
2c1b
ae06
2655
266a
a7cf
aaa8
2df9
a384
a9e0
ad78
2c4c
2ced
2bf0
2c34
2a8b
2d51
a3a7
2c3c
27fd
ad31
2d28
aa1b
a90e
a43a
2bf5
b6a1
b98f
b84c
2f95
b18a
b2f9
30a3
2d94
a4e3
b33f
b080
2d52
1a83
340a
33b1
b5d0
acf1
29f6
acd0
2cd4
3200
b1a8
9e9d
2a0f
b113
6cf
2bc4
302c
9e23
b383
2e34
213a
b144
2c54
30db
b448
31b3
aa70
2dcf
30d0
238f
2ac5
b045
b4d9
abf1
a6a8
2e6d
1e96
27ef
3074
ad26
ac36
2a6a
b5f7
b5bc
b54f
a60f
b4b0
b101
a873
b5e8
b1af
b083
24b4
2ae9
2bd0
1c73
2d05
1e43
2fa7
2a9f
28c1
b4ab
addd
b29b
2971
adc5
ad79
334e
9bcb
ac5a
a67f
30c2
b0bb
263c
330e
af0c
9b6a
3201
2c9d
b41a
a419
983e
b8d2
253d
b013
ba0f
b4e1
b414
b48a
b7cb
a4ea
b11b
b328
2e36
2a7c
253d
2ecf
2a7a
2e14
aeab
ac85
add7
b0db
2c43
ac36
b14c
b276
19b2
3078
b205
a825
2eb5
b421
a589
3309
b106
b0c0
2dbe
b8d4
212a
95fe
b84c
b47a
af63
a8ce
a9fc
2ac9
a864
ad0a
28d4
ac75
2440
285d
2dc1
a954
2c81
2b82
ae7d
a5e7
2c3f
288b
9f14
a460
aa4c
a865
243b
513
26b1
1fd5
a1dd
2768
2b1f
9c2b
26e2
2e2c
a83f
2f8a
2e32
18db
2b18
1e9a
2b66
a956
a71c
29c6
a1cd
2c8d
270e
2d2b
2ddf
2510
a7ed
2b6c
ad3d
2dad
2f80
26a7
2905
9ceb
2366
a11f
2738
ada3
2884
ada9
2469
a129
2eaf
a64e
2b12
2729
1c04
a90b
29e5
2a68
1a59
16f2
26a5
a672
ac35
2571
a1ff
2887
ae6b
add1
a94f
ad61
2a77
2bbc
2107
a3c5
aafa
286c
2ae0
1b6d
2088
264d
24f2
a4e5
ad42
a37b
a744
a7ee
acc2
2276
aabe
2b0b
a9e3
805d
28fb
2d8f
970f
a4a2
a3be
1b83
28f6
282c
adb0
2a7a
288c
2be3
2115
ac8d
2c22
aab5
273a
2095
a9d6
28f5
2d3f
2c66
282e
2475
ad51
2f0e
2dfa
2be5
2c3b
2f34
a9d2
2c15
a8cd
a79f
a88e
9a83
2642
245e
28a5
ac9d
aa1b
1ca6
27e1
acc4
294d
a958
1e68
29fe
2f45
2fb6
a4b9
151e
9c23
ac51
2856
2c84
ac58
2e9d
340d
3090
2f08
30e2
2cb4
2dba
307b
2f4b
317a
3230
2cb6
aeb8
2a29
1ca4
ade9
acba
b196
a49f
9dae
2898
b00b
2761
2650
b1a5
2a8d
aaa1
33c0
2eb8
25da
2e1e
26dc
b348
3422
3481
9e8f
2621
afb0
b860
b04d
a781
b20f
a519
3410
310f
298f
ac2f
a4bf
ab1f
ace7
20e0
ac0f
af4b
2025
2e65
30f7
31c7
31f7
303b
30b4
2e8d
2ab3
a0a1
2ec2
2952
2ca6
a4f2
2b30
ae17
292f
3116
2433
1ead
b021
24ca
317e
1c46
24a7
34cf
311b
3003
32ba
acb1
b41c
2f54
a66b
b024
373a
3253
2cb9
331d
2b51
a553
3393
2203
b073
3113
a7b5
b468
2fd0
3230
33df
23da
2cd8
2eaf
a976
ad40
ac5e
3270
3383
346c
3161
2ebc
319f
3487
3288
3487
31d6
30f5
30d3
3016
2f5a
306a
9c3c
2dd2
30f4
30e3
30ea
321c
2f05
2eb3
2c2a
3066
3115
34b2
b299
2cc0
a636
2728
2fd0
318c
34df
3559
3472
2cb0
30ec
a417
2c4e
2dc1
b1f4
248e
23a5
ae2c
adaa
a7ec
3228
1a78
a5a3
3157
27e0
b029
adc5
b30f
2d3d
318d
2e89
30e0
31a7
36e5
3427
302b
afd8
a8ca
aca0
294a
31a4
3201
3563
35f6
342b
b04e
34f8
31ee
b1f5
3645
279c
b7d0
2eb3
b399
aeb4
af93
29ef
ae76
aaf8
af53
acbd
a8bc
2888
aa42
3025
31af
adde
a58d
2ecf
b2ca
b085
b052
32a9
333e
2edb
327b
2ea0
a4bf
2ba6
2ec5
2f3b
198d
acc5
ad84
b0b1
a7e6
b0f9
b328
b2d0
b023
ae3b
334f
324e
31a9
3687
3005
3716
35e7
2270
2db0
3019
2c31
afca
ab41
b7e0
b495
b605
b9ec
b22a
a7d0
af9f
afbd
310d
29ca
2498
3448
32a7
2ff4
2d73
aa4f
30c1
90cc
2869
a2b5
a55f
aad3
2c01
318f
9ec3
2c01
331c
ac74
a4d9
afdf
b0ad
3052
2e66
b2b8
34a6
3048
aa42
36cf
323a
a897
b5ac
b46a
b56b
b43c
b130
b0cf
b598
b273
af41
347b
2e53
344c
344d
31a2
30d1
3499
31dc
aa07
b150
3214
2e35
b2d9
311b
a521
b6c6
2a7a
a2d5
a7af
b050
2b3f
ac67
30d2
2f16
21fd
3196
afb9
b5d6
b407
b4e8
ac90
b59d
b573
ad44
b3c3
b559
2c9d
34a0
35bb
b4e0
a700
30e9
22e8
2999
b0f7
2a5b
902f
a080
260e
9936
2b1d
ac7d
a779
ad0d
b294
b454
b1ea
b283
af3c
aba6
3200
a846
b33a
ab58
afb3
b7f7
aa00
ad8c
af25
29c3
b031
b460
aca5
ad98
b06e
3087
2ce9
a895
2bf5
2e3d
30f5
b837
b613
ade6
ae1b
246b
2403
a4d7
b07a
2b50
3479
aa2a
ae5e
329b
2888
2e0b
3200
34bc
300a
b654
b270
b46c
b09f
b3be
ae87
b1c2
b48d
ad13
31fc
2598
2e67
2e8e
a919
2e18
2e90
3009
2ce6
328f
3091
3329
3456
2fcf
2e77
358a
a444
ad4c
b0c7
b419
afc4
b48b
b0b3
b061
2de7
ae0f
b38a
3282
320d
a7bc
33f1
1b9d
2869
2e24
2678
2477
aa53
acbf
b020
300a
1779
29ba
2f6b
3063
2bc1
9ac1
3074
a9f0
a139
aa4f
2033
aaf7
2a67
2c44
2df1
2ffa
b58a
adb1
2e4e
b77e
b537
ab0d
b59b
28ac
2d59
aafc
31dd
a83c
1c35
a6b9
a961
b0c8
ad32
9077
2dd6
a8f5
999f
2fa8
ad58
2be6
97af
a724
25d2
2894
284e
2411
2ccc
23b6
a833
a92c
23b4
2dde
235a
30bf
3360
b081
2d53
33d4
a999
32b6
3030
306e
2fbe
2db6
1e1e
2ac8
3093
21f9
2c9e
aac6
2b6a
2d45
2bc4
3296
23c4
223c
3157
311c
a394
aea1
2fd2
2e37
a80b
2a79
315a
b0e6
acdb
2892
303e
209a
2b99
2d61
ae4b
a999
2f2c
306a
2572
3064
31e9
a2cc
2bd0
32dd
af1b
27fa
b0d5
acf6
b05d
ae37
a89b
22f2
a9cd
2d49
2a0c
32ca
241b
a9f6
30bf
ac1e
abc8
29ab
2c46
2c27
a07b
25f7
ac4d
a658
aaea
88b3
302f
31af
3128
