memory_initialization_radix=16;
memory_initialization_vector=
324f
b4ce
b519
30ff
b432
b565
2f4e
b125
b314
277e
aec5
2d89
3370
3497
370e
b2b4
319c
306b
b07d
2eea
2fc9
3062
3049
2cbe
3454
2c31
2823
30d6
18e9
b24b
345c
3516
3176
3002
323c
30b2
31c6
2e14
acad
3362
2438
3623
17f3
256a
9d97
3223
ac30
b4d8
b431
b3d8
b68c
b365
b013
b213
b7c5
b4ab
b26b
a4dd
349f
34db
b4a5
b7fd
b93c
b12f
b4e0
b578
aeb8
263f
af07
adea
2efd
b166
b408
b667
b470
1f5f
3355
32fe
ad41
1ea8
22b5
b237
a387
b5d1
2ce2
abd2
b465
ae06
2acf
b2d2
ac78
205a
9dd6
aa14
b3bd
2fa4
2960
b334
2c3e
a48f
300d
2908
b094
96f7
a105
b576
acbc
b01e
2d7e
2d8e
a0c3
a9b9
b1ec
b4ae
b192
9cd0
b393
28e0
3458
3349
2c34
3549
319f
b072
3272
30be
2e51
2fcf
3348
2ff0
ad25
b1a7
3411
31b1
3191
2ea0
a41f
31f1
b138
2019
30c5
30de
a74c
2cc5
2e54
333f
285d
28fb
2bfd
b22b
288f
262b
b1a8
3422
3260
2f97
344f
30ce
3115
3084
223f
33ff
30eb
2b1a
aee3
adec
2a8f
2ff8
a2d0
3304
309d
b312
b866
b6f5
b1b5
b0aa
b79f
a7f4
331b
b47c
b5ec
2674
a996
31ab
a0de
1c46
3415
2d4b
33c0
2ece
3418
300c
ac34
2d5b
2234
2a7c
2c25
a7ab
b0c3
2e5f
aba3
adfb
ae34
ac93
20c9
a2bb
991d
afb4
b289
35f0
b13a
b2f8
353a
2e62
ade7
2db4
3284
2d86
a0c5
30c3
2f23
a83b
afec
2029
b3f5
aa89
2dde
aebc
31b3
a8f9
2d87
345d
3417
3328
26c4
343e
1f1c
2e8f
2227
b224
2e9c
312c
b671
b0b7
b027
28e4
b777
20c0
b00f
b6b4
291c
aa5c
b0e3
b486
b427
b022
b211
b4e7
2c3f
3310
b4e1
33c0
b421
b451
30c4
b618
b391
32af
2c2d
abf3
3249
b48c
b013
a49e
b90d
b693
b4da
bb0d
b8c7
27ee
2545
ad17
b115
287f
a5a8
a8d0
245c
2b3b
2b03
1fe3
30af
31b2
a067
31f3
9afb
2d61
32fa
b4bc
32b8
1d65
af9f
29a2
b0f0
b5a3
2f49
b063
33e9
2f28
303f
a42c
aaae
2cbc
af54
2930
b292
aefd
b779
b7a1
ad64
b086
b497
32b8
3127
2e10
b1c2
b008
b54c
ad1d
2bae
b2c2
a4b8
343a
aa1f
1ba6
275f
3427
a622
a859
a538
a400
b002
b6f2
2c9c
2599
ad30
b0c2
ada8
b03f
b07f
b128
2caa
b4a0
b1fc
2538
b2d5
a9af
a5e3
b108
b375
239c
2c8a
3301
309f
b1f5
aaae
afbd
b437
b01b
b26b
2e36
2caa
b1d5
2ecf
2efb
b385
3212
312f
30ce
ab6f
2cc1
278d
b03e
33f8
afca
b566
1e21
b0c1
23f7
2a5e
31a3
b78e
a3ae
2cd1
b547
b3d5
ac0c
a175
a55e
b29e
2e3d
281d
1c75
2dc3
b07c
a9f7
263c
30db
afa4
a4cf
a689
30c9
b599
2ca9
30c9
29d2
ab1b
317e
2c51
2d08
31b3
2cf0
a136
ac9f
b005
b067
aaa8
2d48
2536
2313
2442
b099
a9d5
b232
b51d
b428
3242
ac94
2834
32a2
2eb3
2ac5
b06f
1c77
a41c
a8d1
b2b6
3035
ae9c
b354
a87e
b545
afc0
b236
b701
b63b
b896
ad21
ad90
b515
323a
28b2
a723
3088
29ba
a997
3028
309c
2661
32d9
34da
b960
35e5
3621
ba63
3702
35f6
b892
b336
b1bd
b548
b35f
b25c
b777
b5dd
b4d7
b637
26ce
1cde
2743
18b1
a95f
ac19
9906
2881
a8c2
b133
b29e
b6c0
b432
b611
b7ed
24f2
b18b
b784
3321
3434
35b1
3264
354d
36a4
334b
35be
3592
ac2b
abc3
af4c
2413
ab85
ad5c
aac4
a91e
a3ef
913c
347b
37d9
bb09
bbcd
ba1c
b6d0
aeb2
b806
afe0
3211
3662
b26b
315e
34c5
3046
a521
33ee
b466
b163
aebd
ae20
b093
b25a
ab88
b031
b2f1
b7e8
b946
b6e2
b2b5
b4f8
b659
2dec
a649
acd1
acaf
ad6f
2988
2be1
2a3e
a3ee
2c4e
2cd3
2b5c
b2e2
b4a9
b600
b45a
b513
b745
b361
b50d
b6de
3469
abbd
b131
304f
2da6
aede
b2f7
b4ac
af73
b362
b1d3
2be6
b59d
b0f1
2a93
b411
acc4
3628
ab0f
afc1
b525
a91f
232a
b07b
af28
acbd
b0f2
2cf7
281d
a777
2fb0
a355
af9c
31e5
2a37
ac69
b143
b452
b0e8
b683
b661
b31e
b7b5
b621
b58e
3207
28a8
9447
2ff6
2515
28f0
2e4f
2cff
32ff
aede
a4ed
28ba
ac1c
9ca7
2762
2abf
aee8
af11
b153
ae5a
ad1d
ada2
acaa
a304
ac10
b205
b1f5
30cf
2401
9d2d
25e2
2b8c
b047
ad9b
2697
b0b7
2e00
23a4
a5d9
90d3
2708
a64b
aefb
29cb
18f3
30d7
b115
aeb1
951e
b26e
b40f
b42f
b41a
b7ed
b582
b90e
b9e6
b4db
b78c
b411
b411
b093
9de5
3020
2a48
2d09
2ef0
3190
3139
3087
2fd7
344b
b649
b72b
ac37
b87b
b450
a97c
b682
b351
ab3e
aafd
aad3
9f47
ae30
a96d
aaef
ac4a
ae63
acee
30b3
2c4b
22cc
2ca2
2fdb
a1d7
2e41
307a
2d91
1fc6
a25c
b2dd
2ca9
b3ff
b6d7
28ed
b19e
b57f
ab63
328c
af60
b0c0
2f15
b0c9
aa63
24de
ac06
ad5e
2dcc
ae35
a8fa
2add
2b8e
24c8
b263
b350
305e
2ff1
2636
2b1e
24b5
a656
2e36
3272
2e4d
acd7
b476
2bdd
b525
b29a
2f38
b6fe
adb8
30a0
a852
2a9b
300b
2a96
9910
32f4
2c66
2219
3047
b024
aff4
afe5
a8fd
29cc
a436
2b44
ab5e
2162
3077
318a
2d27
234b
2e8f
2ba5
adea
aac2
2a29
a1cf
2e79
2b18
a472
2d72
233f
aadb
a182
a6d1
a751
ac31
aa8d
ae63
a513
2c65
2692
280a
1f7c
b468
b8b5
b92d
afda
b5aa
bb1e
b131
b612
bc01
b19b
b9b7
b817
ae96
b929
b6af
af66
b802
b033
2ee1
2d80
2f1c
2ead
330e
3219
33a7
343c
354e
26b7
a130
336f
23d3
a816
318e
ab75
a9c4
25a9
2b62
2b1f
a9de
2b62
2ebe
a77c
ae22
ae9f
ae6c
3327
342a
3589
2d5a
2e11
2a10
3132
2a3c
adce
3380
34b7
ad46
344e
2f9a
b43c
35ba
29b4
af24
2c90
31a4
3455
ac31
31de
339d
a9bd
3334
34b9
2a53
29be
ac5f
ac9a
a65b
aca8
ac2c
aaa5
28b0
2a94
2dec
a8e0
a86c
25d3
a9db
a147
a55e
ac0d
a4c1
2866
2692
a6d8
29d5
22ca
adae
a610
a9ac
2925
2a80
a445
a6b2
abfd
9cb3
a2b1
abb1
aafd
a873
2361
ad51
a43d
a903
ac5c
ab53
a335
2773
2afe
a02d
2b1c
a640
2a06
a82b
2a9b
2c93
a6a0
2ad6
2b10
8f4f
9ddb
a72c
abb2
a8b1
a1b5
2805
a6f2
112b
ad53
2948
ad4a
ab90
a558
a91a
a48d
2c2b
ab41
aa87
a8d9
1e48
2d3c
2d48
2282
a541
2334
2552
a0db
ace5
a3c7
9c37
a9ac
ad6e
a635
a408
ad25
2495
2acd
18f5
2979
2c68
235d
280a
28b8
2d3d
2cbe
2a7e
aa3d
2890
2984
2cca
a34d
aaf1
a9ad
2044
aaa0
acc1
25c4
a52d
2ae0
2b8a
2c99
a832
a94a
289c
a7d7
201d
ac8e
223a
2ae2
2cef
27cd
ab7d
2ddf
2b99
16dc
a388
2662
2a59
2c43
a89e
ad50
a5bc
ad34
2c0d
a360
2bf1
2b79
a7cb
b4f8
b4bf
305e
2237
2e18
b00f
a85f
2866
3726
3588
38a2
34b7
31ed
2dcc
2f07
2044
b307
2fac
283d
2e1b
b0ef
b129
3210
b47b
b365
31b9
b301
b16d
3056
30b4
35f6
2e27
35ad
357b
3288
a71c
aec5
b54f
33a6
3109
3226
3496
36d7
37d8
359f
b4c5
3125
3367
1c04
31b7
ba2b
1de3
3547
ad24
add7
b07c
ad4a
aa9b
2d2b
af2e
af23
a8d2
b630
b9b7
b8f4
b5bd
ba58
bb3b
b716
bab7
b898
2833
1c1f
2c3a
996a
b771
2a6a
3605
b08e
349e
399d
aa58
376e
385f
b381
328c
34d0
ae22
a8b5
3502
ae67
af43
3560
30f0
2b1b
35a3
30ca
342e
ac75
3442
30af
aef0
2f86
3208
b2b5
1f26
2f77
29b5
3022
2c7e
3006
32b9
aed9
2ee7
31e6
b0df
3084
b48c
343a
218a
b0ca
340b
3260
2768
2ec0
3167
2b52
aa1c
3209
2fd9
3134
3402
340a
34c0
2044
2274
25ca
ac08
a303
ae57
ae48
9fed
297f
b0e1
2a9a
aa65
240f
3063
a4d2
ab7d
2ce0
2a73
2c1a
262b
2cfc
b040
a81f
302b
b4f7
ad3d
aa09
2ada
2f06
31a4
b0c8
b133
b0cc
2c7e
ad9f
b35a
30ea
a7ec
b353
318f
2db3
acd5
3235
327d
ae47
a0b9
2ff9
aceb
ad1f
304f
2c5e
b363
2875
252d
a57c
b107
b871
3034
9692
b423
344d
31b3
b11f
b0f1
2db4
a9d2
2e0e
2e6d
2c5d
2e82
312c
2339
2b36
a54a
2e7e
2fa8
217a
2e2a
2a2f
1e48
2c4e
b8d7
b25b
aeee
af21
b04c
2c84
2c72
304b
3054
b001
b10b
b369
a98d
29b6
ac97
305a
3125
32b4
b148
25bc
3101
ad92
2492
2f25
b538
b30e
2d3e
b51c
abf7
a79f
b361
aec4
31ac
af0b
318b
327c
3163
a7db
ac3e
2865
2cdd
2ade
ac08
b05f
aa6c
b2cd
b0f5
a6bb
b032
b0a6
2f5c
b286
a269
33b4
b297
b372
a9f8
b5c6
28ca
3013
b37f
29b9
2d8b
aaf1
ae1c
aace
a522
a87e
adf9
a012
add7
2522
b1ad
b1be
30a4
2d0b
2fa6
3106
321e
30da
30c1
2e60
acfc
aa89
b296
a8c7
b172
b436
b715
b594
b27b
a59f
2bb5
ad26
ac33
3173
a956
ae0a
2489
3033
b09f
b55c
2ca6
a791
b401
331e
974b
b412
b0a6
acbc
29e0
ab38
29a1
302b
27a5
2970
317c
1b80
2b3f
2ec2
294f
32f5
2bda
2463
a862
b5c4
b461
b158
280c
af5f
2e24
ac3f
2ea3
319d
9c47
ac5f
16b4
2d40
9dfa
ac83
2cdb
26ae
ad31
21b1
a2c2
a89c
32cd
3359
3176
2c8f
31eb
317b
b023
ac01
a988
b4bb
2c2c
3173
ad21
a9f0
2a22
20a1
3177
2e0a
2ca7
31be
2a2c
1f89
b013
ad17
afac
ba8b
b24d
34ca
b785
b1dc
308c
26b3
a1fb
309a
10ff
201f
b2b8
b1df
2e43
b292
b042
a414
b4a8
b016
2f83
357f
b4c8
273e
3286
b71c
b121
345c
b2e1
2f6e
2db3
b50e
2924
1cc4
b79d
271e
2844
253f
a853
aac1
a3b3
aa2a
adcc
9a22
a91c
acc8
a6f6
306b
3130
b183
b412
a9da
b2d0
b449
b0d8
a77c
2804
b231
2c8f
3151
abf4
3063
2cf9
b1b0
3132
320a
334a
b660
b4cd
b087
b77d
b4cc
b480
ad1c
1bf3
ae36
b223
a25a
2c5b
b17c
9d2e
2ef3
ab4c
b1fb
b655
abc0
b54c
b985
b1bb
b551
b518
ae86
b4ef
ace7
9bf3
b491
b0a5
b211
a9cb
309d
31ea
2c7b
3092
2908
a21a
ac1e
aa3e
aa2d
b1b0
31a1
30d8
301e
2e87
306d
2cbc
303c
1c5c
b050
2642
b30d
b182
250f
a3c4
b6e4
b416
b76c
b3e0
2b9c
326e
347c
3127
acb1
30a8
34af
abef
2043
2b89
adf7
b2cf
a895
b189
b3d8
3189
b009
b35b
2c56
27db
3238
2828
adff
2ae2
afcb
b5cf
a484
307b
26a9
b0ee
2f32
ad95
212e
3083
a88c
a982
2336
2c1c
a67b
b12d
b2fc
aff3
acde
ae7c
b2b9
27c9
9e38
aaf3
290e
af0b
b2c9
3384
ac85
b497
ad4b
2a94
a8f4
ac5b
aee1
aea4
aeef
25fe
ae8a
b317
b356
b361
b072
b072
b289
aff1
aca7
b5ad
2b9e
a0f1
ade3
2e18
2e28
2e75
3088
3112
2aa0
2db4
ad16
ad10
27c1
1c2e
afcf
af0f
a6b4
a830
af24
ad31
a5db
1c88
ac0a
9b46
b459
2985
29cf
acd9
aed0
ae20
b33c
ac3f
b35e
b53a
b12f
b6bd
b478
b37e
b06f
2cc2
2c68
2fbc
3487
3160
3442
ae20
1dd1
a896
ac55
a8bb
a6f8
aef3
2550
aec3
a5f5
b0a2
b388
2c07
ac3b
b1b4
302f
2d23
ab66
b32c
8da3
b419
b3dc
af17
af46
b542
b545
b668
2cee
2fb1
b0ae
281e
aea7
b1d9
b11b
ad05
b29b
ae17
a7b8
2d51
b73f
b128
ada8
b5be
aeae
ab56
b267
242d
2f50
23ee
2692
30e5
2352
1e9a
2e76
b112
aa0b
ae14
aca3
b023
ab5e
ad6c
b186
b45c
a92b
ae45
ae1a
2ced
28f9
1d30
92da
25b7
ad34
2bc1
a1f4
a54e
2c55
3005
2a54
339f
32ff
2e54
ae03
a319
aca4
ae71
ad13
a7a2
b149
ae2b
ab32
283c
2ade
2e97
322f
312a
3638
3323
322f
31e8
b181
b022
b710
b838
b4e5
b64c
b6c2
b1c3
b398
ae01
b512
b6c5
b085
b542
b88d
ae8b
9c9a
b682
b2ed
b0e1
af30
a9ea
a946
2c06
b057
2164
304e
2de5
30dd
2a5d
2c50
30a7
346e
3184
2914
33fe
b85b
b319
afab
b9b9
b1ee
1fb5
b788
25b6
3443
aca5
ad28
225b
2903
abc3
a9b2
ab24
2a4d
ad59
2c8e
3019
2f4d
2b32
2e7a
306a
a48c
283b
9a04
ad9a
a4e1
b4bc
316d
2e33
b266
a523
b06b
261e
a2c0
b5a1
ab96
b077
b62a
ae6d
a7c0
b30d
afea
2a76
34d8
2bac
3113
35a5
302c
ad55
29b1
2d1e
aaf8
ad9f
2e57
ac96
b012
a53e
ad0f
aefd
2af9
abb7
29d2
339c
33d2
3435
350a
2aef
2f44
2fce
1dcd
ad08
b177
b4ae
b653
b4c3
b49a
b6ab
b0e3
b24a
b2b5
b77b
b84e
b4bc
b3dc
b928
b600
b598
accb
acc5
b332
ae7b
a8f1
affb
b211
b17c
b0bd
af39
b044
ad4e
a891
b4fb
b040
a63c
b54e
b55c
328e
298c
326a
ab73
b207
2a45
2c24
afd6
2e5e
3544
3827
3a34
2c32
30c1
38c8
ad81
b110
3700
254a
b167
33bb
320b
2bbe
2ff5
2bfc
3191
d33
a264
b06c
aeb8
afde
a92f
ac7d
b1c0
afe7
b2cd
2bce
b377
b46e
a5c1
b45d
b616
29ad
ac8f
b44c
aacf
a603
2037
a9c6
ad63
a9f5
2cc7
a46a
2a94
b2d6
b6b5
b60f
ae0a
b3d4
b440
abfe
b3e3
af8e
a8d4
ac52
2a57
2fa4
98f5
3290
a714
a917
2c76
2d55
383b
31bc
2a4d
369c
2aee
b5ce
309e
2d28
b450
b478
a4d5
2bff
b0d9
ada4
acb6
2842
b2b9
312a
3358
2f04
2f58
2986
2ca5
1f7c
a6f2
b45b
b3df
b34b
b150
b5d5
b410
1d97
b66a
b6fe
2af8
31ca
22ed
2ed8
2b97
a953
2ccf
25cd
ac58
b13d
3192
1747
32c5
22c6
a99f
3038
a928
b032
2748
233c
b0a2
847
2da1
b4dd
b30e
ad49
b49f
b2fd
32c5
334f
34ed
a6c5
2d4b
324e
b2ae
1cb6
3025
b5f4
b67f
b5a2
b10f
b6b8
b873
b638
b836
b937
b097
af34
2e6c
b152
b112
2452
b16d
b32a
b6c1
aeeb
2e15
3507
9843
2e11
330d
2cd6
2cb6
2c14
30f0
3196
2f64
2860
308c
a679
229f
acd5
ae7c
34f4
a734
29ad
3212
25d9
2aeb
a091
ad9a
2f69
270c
a56d
aa39
ac7c
27fd
a03e
ab83
ac1f
acfe
acaa
25e2
3059
a933
a697
2d6f
ac8e
1a6d
30d0
aef2
25f2
3137
b26c
265f
2c44
2c6a
2fde
2f68
accd
b3e8
b41f
b2d7
a80a
264f
b5f2
29d4
aa17
ad97
2e95
3010
acf7
3100
2f45
3362
310f
b2a0
3580
32f1
2f93
26cd
257d
afa6
b65d
b453
b46e
2e67
2b93
b0dc
2362
2e6a
2b30
aa32
a81f
318c
b45c
b390
b05e
b33b
b0d7
ae4b
b442
b2a3
af76
b50c
b4dc
b57d
b281
b5c1
b47c
b572
b731
b94a
a392
a87e
b0bd
af69
ac9f
b0a2
b358
b1cc
a8b4
