memory_initialization_radix=16;
memory_initialization_vector=
3251
b1a7
b30f
305a
aa3e
af90
339b
b00e
b3e3
a7bc
ae68
304d
2893
a439
34da
b4b5
295b
b444
a87e
2916
b2da
2e01
2b99
b221
b126
2de0
b57c
2a43
255b
b44d
3446
35a5
34aa
3318
2de2
345f
b499
b275
243c
300c
a9bf
336a
b562
2736
314e
33c3
2b56
99c4
b214
ab8a
2707
ae1f
b229
b464
2fba
3029
2fda
3099
2c4b
28e0
32d6
3462
346a
ad08
b431
b104
b02c
b08e
2b0e
2ebf
a419
3058
30db
aba4
ab9a
305d
2e9b
2c33
b062
ad06
30a8
ac4a
b765
b681
b1e6
b4ff
b4f0
a604
b822
b760
b41d
257a
a567
a794
2e86
29c6
b386
b404
b199
ac8f
2e6f
3422
b414
2f47
2ee6
b26c
27ae
34a8
0000
0000
0000
0000
0000
0000
0000
0000
0000
0000
0000
0000
0000
0000
0000
0000
0000
0000
0000
0000
0000
0000
0000
0000
0000
0000
0000
0000
0000
0000
0000
0000
0000
0000
0000
0000
0000
0000
0000
0000
0000
0000
0000
0000
0000
0000
0000
0000
0000
0000
0000
0000
0000
0000
b0a2
b349
b23b
ac4b
2754
ac72
2b12
2c1e
b081
322a
3317
a2be
2e01
30ff
aca0
acde
2b64
3192
ada1
24e8
3044
3363
2f07
326b
b5c1
ad0b
b291
b0e1
b10f
b561
b277
b453
b688
2e1c
b460
a8ad
ac6c
b0b4
b0e7
af9c
2eec
9c37
2d3d
b11a
ac69
31a4
2a23
a279
2aa8
ad9c
3059
aacc
ac83
3318
3777
38b3
35c0
3504
342f
37eb
3332
2ca0
345c
b074
a542
3085
ae09
aca0
3077
b1a8
305e
28d9
2cf7
254e
2d59
b1b5
b816
b788
37bd
32b9
2eea
3569
35ca
307e
3570
323d
348b
3451
3176
2e91
3523
366c
34bf
33d8
351e
3426
329a
34dc
3484
1a77
318c
2d8f
b2c0
2e41
32e3
aea7
3032
31d0
2cfe
ab32
a9ea
2b31
9f3e
2eb4
2f3e
315d
a3e8
2a92
8a12
2628
adf4
2252
af7e
aeee
2e2e
acf1
3688
31d9
1c31
32be
2cf9
b05f
30c2
2cbc
285a
35c4
b5d1
b72d
365c
2873
b6cc
381d
a643
b912
0000
0000
0000
0000
0000
0000
0000
0000
0000
0000
0000
0000
0000
0000
0000
0000
0000
0000
0000
0000
0000
0000
0000
0000
0000
0000
0000
0000
0000
0000
0000
0000
0000
0000
0000
0000
0000
0000
0000
0000
0000
0000
0000
0000
0000
0000
0000
0000
0000
0000
0000
0000
0000
0000
0000
0000
0000
0000
0000
0000
0000
0000
0000
0000
0000
0000
0000
0000
0000
0000
0000
0000
0000
0000
0000
0000
0000
0000
0000
0000
0000
0000
0000
0000
0000
0000
0000
0000
0000
0000
0000
0000
0000
0000
0000
0000
0000
0000
0000
0000
0000
0000
0000
0000
0000
0000
0000
0000
0000
0000
0000
0000
0000
0000
0000
0000
0000
0000
0000
0000
0000
0000
0000
0000
0000
0000
0000
0000
0000
0000
0000
0000
0000
0000
0000
0000
0000
0000
0000
0000
0000
0000
0000
0000
34ad
3330
2f6f
33ac
2c7a
b0d3
2fc0
3190
a5b4
b0d0
b154
a873
b031
b385
aa4d
aa4b
b5b3
24e8
3596
ac24
b658
2e65
2ddd
ab3c
261d
3286
2901
b6c1
b1a8
b3dc
340b
34a5
aed8
2d2d
acd0
b4bf
24d6
298a
90ee
2d84
1691
2d24
acdd
227e
2a1a
3822
354e
3443
295e
9966
29b0
31cf
1c69
34e6
2be8
30a3
332e
34e4
38b5
3491
374e
32b8
21d8
25a5
2c27
a673
ae00
2a13
2817
2bce
2892
a41c
29d0
acab
b306
2485
ab22
b23a
31f5
1852
b5ac
96dc
2636
2875
af0f
2686
293a
323a
3189
31b9
b747
b8db
b919
b55a
b870
b975
b0f3
b73f
b564
377b
3549
3447
2f65
a970
99bf
b01a
ab77
b09e
a864
2c0f
af9d
a522
29e7
abce
2cad
2c5b
aaba
ba47
b7be
a0dd
b7d7
b66c
2dc8
b238
9d61
acd6
b8ee
b81f
b8f2
ad66
af0b
b548
372a
b062
2e0a
281d
ad36
38c4
abb7
96ff
3536
30d5
af44
31b4
aabe
2ea5
341b
24e5
311a
34cd
ac7d
30de
343a
1fcc
afb4
ad55
ad7b
ae6c
237a
ab2f
ae5e
aaa4
2d42
2e32
3151
a9b7
24c7
aeee
b228
ae34
ae6b
b235
ac9b
a9bb
1ded
a98f
acef
265a
306a
2fe2
a88d
a8b7
29d3
2030
ab9e
a69e
a2f4
a7c8
a99c
3060
33e2
34c5
3083
3197
31d1
ade4
2f86
3483
edd
2649
2fed
293e
30ea
3344
af12
301a
3027
a9f9
ac03
aabe
a93b
ac85
255f
a9da
a715
a911
34b4
3440
3512
3124
3131
283a
1a87
aae1
b028
215c
aaf0
a5f8
2e87
2b0a
2da5
af72
aa78
2e1d
3139
3349
3008
2f02
2cd5
2097
af4b
2335
2b65
2d27
30aa
a3eb
3204
3283
2d01
28c7
2aca
aa06
a80e
a0f5
a3f5
aed3
a78d
ad2b
2815
ae8b
a8ce
32f4
31a3
308a
2d42
303d
ab6d
2c0b
278c
af07
af5b
aec1
ae1d
b37f
b0cf
2045
aeb2
aae8
a026
b5aa
b1b4
349e
ac12
2cc9
3333
2d88
32c7
29db
2666
297e
3438
252b
aa0c
300a
2c51
9c7c
2cb0
2ac5
b121
b035
3229
af04
ac08
2ffe
29b8
2ed3
b5bb
b271
b4bb
b8aa
b0a7
b4a9
b21b
b0f8
b0c4
2ed4
3198
2eb5
30f0
2d81
3013
2b69
2e6b
a52c
a83d
ac97
2692
ad06
b10e
99ef
aff5
1d5a
a902
3051
a7cf
a91d
a9ac
aa0f
a8a5
ac7d
ac57
aaad
2ca4
25ca
2d4f
2afa
159
255b
1c9e
27a3
28a3
a8fb
aa9a
acd9
ac24
ae0f
a5d5
ae8a
adda
26f1
b4ac
b341
b3c3
b45e
b2d2
b586
ad59
2eb1
b41a
b2bc
b22b
adc1
af34
acfe
2886
2fbb
b062
2ad4
2c99
23d7
2d80
2b3f
afe6
afb6
1818
2c02
95fd
2acb
300b
3415
2dfc
2c21
30a0
acd2
2eb7
3230
2bc4
a19b
2812
a7c6
2a15
a8dd
ab75
2ee3
ab52
2fd4
28d6
2e6b
2aaa
2faf
2714
2731
284e
2b1c
b0ac
b36d
b8a7
ac17
999b
b40a
313f
2497
9841
b300
2dde
34c2
b408
ace2
32c9
b408
a4cc
2f31
b25c
ae45
338f
b147
acbf
aafe
250e
a2e1
adc5
2e59
2d05
b5bf
2ccb
ab0b
b523
2c88
a56
b52b
aefc
af20
b420
b2ba
aebc
b382
b291
ae5d
b5a9
30eb
3004
3284
2dce
2fa4
1f00
ad3d
b12d
b4f9
b066
a90e
1147
2367
b107
a85d
ac75
25d1
ab2f
300b
2ce6
2d17
2c2b
311d
3034
2fc7
a2b4
acac
3500
35f4
348a
31c6
3325
31fc
2c37
2f16
3143
a884
29ba
a4e8
ab55
ae45
ae42
9df2
91e2
1b3f
b55f
b953
bb9a
af7d
b35e
b8e9
ac0a
34a1
af9f
ac36
b02d
2a88
328b
2ffd
b0d0
3584
2cd0
a505
b1ee
b409
a71b
b60e
b9c0
b929
31ce
b5aa
b94e
af35
2527
9090
2666
3003
295c
3465
336f
363d
a3a9
2ec2
256c
251c
a2a2
a790
2b88
2cf5
adbb
2d78
af00
b159
3144
2e0d
ab87
29be
adba
2fd9
2c45
3197
2264
316f
30c3
31d8
31c5
325a
31fa
3380
aac9
aba4
ae26
b427
b52a
328d
22c5
b362
2cdd
a8f2
af21
174c
2b85
b116
a648
a077
af7d
2b8c
aadf
b0e6
b20c
ae0e
b29f
b381
28fc
b677
b261
8c8d
2833
319b
2c48
2d6a
3198
2fb5
1c4a
3280
a970
b143
2439
2da2
ad95
32e7
319b
ae81
2f19
2d23
32ac
290f
30a7
2e0f
b6bb
b67c
b085
300c
2da5
294d
2f1d
ab52
a9d8
a843
b56a
b6df
aeb6
2839
2f37
a813
2bed
247c
2d9e
2eb9
29f1
addb
a7c2
3050
2a24
a4d5
a84e
31e8
2d60
2cec
afa1
1f61
b3b8
2d11
30b4
ac31
28d2
23a6
243f
ae0a
aeca
b463
b452
3123
b0cf
b383
2ca1
af5e
b4ec
a6b9
3127
b552
afa5
9419
b9c9
b4a7
a9fb
b6be
b15e
a8ab
b308
ac68
2602
a48c
3036
3021
2eba
2a26
a8e3
2ce2
2c44
aae9
af6a
ae2c
a94c
ac79
b1b9
2929
b3b0
b24c
305f
b6d8
b0ce
31a4
b49c
b438
2c35
b868
b236
2958
b69d
ac35
2e59
2af9
a98e
a7c8
9e9
a4d0
aa1d
a454
a7aa
ad11
225a
aba8
ae5f
33ea
3040
33bc
2465
b607
b67c
b5e1
b4c2
b408
ac39
ad1f
b230
abab
243d
b654
372d
30fb
30d9
3122
303b
30b5
3295
30f5
325f
b5a9
acbc
31a1
b0b5
2fb4
2c99
b36b
3093
2d31
9845
b41f
b448
322b
2f42
aae1
327e
3388
34b2
2beb
b2d3
32f9
aad2
b418
aa59
b676
2a85
3422
22ae
aaf0
2af3
99d2
b00f
a837
216c
2c67
2884
b045
b118
2cbd
a0e0
a8df
2d2b
3192
30fb
3301
b037
3064
b0b1
b12a
2611
b0d7
268b
30d3
2efe
2e56
2cd0
34b4
aa99
b35c
aa33
acfb
aeeb
9d90
347c
a987
b68c
2cb3
a96c
b339
1bbd
b2b1
b11d
3118
3316
30a2
a624
a81c
ac6a
aefd
ad6a
3350
2c5f
2d67
a35f
a07c
18c1
2680
a67a
a9dd
ad81
345b
3015
25ed
2c7e
21b0
1f7d
272e
2f16
3238
310d
1be7
b444
3319
aef1
b49a
2e92
a9a2
ac31
a873
277e
ac2f
a1bb
afcb
9a33
249a
aef9
a888
3141
3337
31b9
2501
29f1
2eac
adcb
b267
b538
2f46
30e1
2c20
b025
29b8
2702
306f
34a6
31b2
25b7
350b
2d7d
b59e
b009
28f5
b8e5
b599
b2af
a697
b4a4
1e54
b063
1f4e
2a2c
b685
3086
319c
2950
ad5f
b57c
aefb
aa0c
b584
b12a
b360
b829
b2d3
1a54
3436
b48b
afb8
3055
b526
ad90
3412
31d3
ad65
b0f8
2fb3
a783
b3b8
abc3
b0ba
b51c
3195
b0ed
b4f1
2ced
ada6
b456
a487
ad06
aef9
2d4a
9fca
a5a9
b3ab
b1a5
3058
b90c
a694
2f9e
b7a5
b206
b4c4
b0e6
ac74
b08f
ac02
ad3c
b087
2cf2
313c
a96f
2875
9e71
b10e
24a1
b015
b26a
ac12
a674
2605
b5e0
b283
af76
b7ef
b6bf
ad62
ab52
1947
293b
2ee8
29e0
272d
29eb
b200
266e
30a0
3258
3150
a84c
305b
abcf
2cbe
b0e9
b477
33ef
3213
2de6
2efe
28ab
b34b
306c
b099
b617
a631
9ec6
acdb
a637
abd2
a529
ab48
aacc
292d
26a4
aa02
b058
a0f9
2dae
2f01
2ed9
320f
2e39
3908
3571
371d
37b5
31e9
3400
3688
3031
30f5
2f25
34b0
b328
b5e1
2b67
a9a8
b722
b43d
b5e6
b97d
b9e4
ad55
1b69
a9f9
b309
3404
35bb
b642
b6b4
aee8
1600
b881
b2c9
2e72
b8d2
2e4c
3650
b0e6
b4a9
3429
b171
b7da
3049
bbbd
b6aa
af76
9092
b1b8
b240
31dc
1c56
ae86
2e07
331a
b2ff
305a
2130
b453
2cf5
ad09
a19d
b508
b8d1
ae21
b32c
2e03
336f
b232
27ab
317d
9b48
ac26
1f44
34b9
a77e
3628
31bd
b603
31f3
2a24
ac8e
3145
33de
b0b1
b3d3
3612
a434
2f71
30d3
3055
3530
b916
a91d
2eb3
b906
a8ff
b7aa
b668
33fd
b859
b1d8
30a2
ac0b
adce
2ae4
b035
1c5a
32d1
b0e9
2abc
b734
2c04
a6c0
b094
32c4
a0a8
299f
2e06
b076
b4a9
b32c
23c6
a53a
aacd
3348
3480
31bc
9f5c
a5cd
1ede
a867
a70b
ac7c
aa0b
24e9
a91b
32cc
2f1e
3180
296f
3034
3092
acb9
ad6b
a841
b35a
1cec
2dd0
b247
264f
a7ed
27eb
32cf
303f
af18
b12f
b29b
2dd4
b527
b471
2761
afd3
b718
b84d
b1c3
b441
b7a1
216e
9971
a36b
3132
3460
28fd
2c36
31a1
2f31
2be5
2e67
3004
2d22
315d
b029
3310
b2e6
b59f
adac
b5c4
b61e
b70d
b4b9
ad62
a134
a860
2b4d
ab99
aeb9
a1d1
a58f
a9b4
2743
b10e
b3b8
aca7
b447
b663
b03b
b32a
b4a6
2793
ac53
2e29
acf2
b4dd
9188
b0e0
b1a6
2c02
ac35
a9ad
b5f4
310a
ad1d
b8e9
a970
b163
b610
3091
2aed
32b0
32f2
2f2e
2d8e
9d63
ac26
ae5e
26e3
32f6
333d
2d27
2f79
29ac
298b
2533
ae39
3358
2cc6
2834
3059
2d50
a4a2
2c43
245d
2b8c
b1fb
b501
b34b
ac2c
b2cb
b102
2dba
20e0
ad43
ac32
2e23
2d8c
b267
24f5
31a5
a428
2e49
300e
a0e9
266b
2c97
2acd
2e64
3164
1e37
2d2b
31f5
354e
33f1
2a6a
32f7
315d
2ef2
3151
2d40
aca2
18ad
2b07
2b9e
2c97
2193
2835
29c0
aaa3
20c4
336e
34c4
2c96
ac8c
328b
303b
b290
2fe2
311f
349d
9893
3432
2bbc
adc8
a9aa
b34e
b402
b04d
3408
3357
306a
33e0
2ea7
25d3
2eaa
2bba
ada7
b41c
b09d
b491
ad2c
aca2
b01d
aff5
a923
a696
a456
2c35
aa75
a6a6
acc5
2085
a1de
9d88
aaf0
a4dd
a2fe
b046
b321
adc5
afa1
b64d
ae03
ad24
35b0
2e7e
341b
2f0a
26ab
1eb9
2edc
26bf
a0c6
2b5e
aec1
3142
2d92
adf4
2a74
3180
a54c
2ef0
2dcc
23bb
9e81
ac90
a804
b3dd
2a66
a629
b543
a376
b08e
b5b9
25d0
afab
b58d
ae50
b4b7
b430
3473
3451
346e
2c35
3063
27ef
b2d3
b338
b575
3349
3267
328d
2ea7
2583
2a11
310d
31b8
31db
213c
b03b
a412
2669
ab53
ae38
2816
ab05
af0a
335f
32b4
3364
30a8
2cf8
2c64
346e
3059
32bb
aef2
a429
b4cc
29b1
b07e
b387
330f
ac43
b4bd
b750
b07f
b3d6
b4b6
ad40
b28c
b10a
2b95
24e2
b352
a977
2d40
b669
b08a
ac37
b842
b39b
b153
b661
ae3e
b0c3
b2c2
b5b3
b58e
b533
b8b0
b63b
2f94
2f6e
b346
3172
2d1b
b025
18bd
aea3
b29d
3581
ac6c
307f
34da
2dfb
2afc
3521
2c25
308c
abd3
29a4
2a7c
a8da
a61c
a201
2836
2918
a955
316a
a985
3167
3597
2c2b
33fb
37ef
3164
339f
b331
32c8
3531
a892
31ae
343d
2cff
313a
295d
b402
2a03
b1be
b197
2e59
b4c8
b0e0
abe9
22d1
2960
a408
2c19
2c08
2e39
a670
2d7f
3206
ad3c
368a
31f0
346b
3698
ad5e
2ef2
2d3a
b6bd
b41f
2f23
2ad0
2d14
301a
2ce7
31f2
3703
3487
36c3
b41f
ac4f
b329
ac6b
2feb
2d89
b2d7
2f37
2adb
b844
b0e2
b374
b4c3
a4d6
b105
b38d
aab8
a9b0
14b9
a760
2e5b
28b9
3155
ac11
b06d
2bec
afc4
9bab
b03e
b40c
ad53
af96
b336
af7f
b536
aced
b63f
ad9a
2ef0
b41d
30ac
3374
b5b7
a95c
a23e
aad7
2cd0
1974
a9bd
32a6
2403
b60c
2d06
b405
b5e2
2d54
2ad0
b176
ade6
ae15
b490
b1dc
b0a9
30c6
2d75
b3d9
2a9c
a3ef
b0d7
b0a7
b027
aeab
34a6
a933
2e43
338f
a735
32b3
310b
a90f
36b8
acc1
a47b
aa0e
2610
a967
aa18
ac3d
2318
acc7
34ce
310f
34ab
3619
3498
34d9
369b
357a
37c5
31e4
32d2
3462
30c2
3473
3057
3448
3558
2edd
3678
2cdf
ad1e
3197
32f0
b1c4
29ba
ae90
b532
1e26
2f3c
3070
2f79
33f5
9ea4
3136
320d
b52a
36f9
32bd
34cf
332e
b30f
29eb
b4bd
b5b7
b100
334a
3276
3339
322e
30b0
340f
32c4
1cab
3016
b849
b71c
b69f
b653
b144
b416
b947
b51b
b6f7
b7ac
a9b7
183
aeee
30ed
3256
b32a
b005
a840
b138
b170
b900
b4ab
af1a
b892
b786
b0e0
b56f
