memory_initialization_radix=16;
memory_initialization_vector=
33b1addbb5a8a64f2f5631d81a9b2e7e2a1fafd93177311b2de4b026b06a1e59
3012a9feb5662c4e2db92d0ea8372f192b831b40330432322c292551a5e92330
303fa2cbae152cc72fe01ec020bf30fe2efca41a2c1d1c1d3072ad6eac6b9ef9
312ab083b485aff93127294d22be31643127b47e3149b086331bb36ba99fa651
3082b342b150ad992e73300327db32b9a93ab6eb30183542342ab1adb0642aec
19efab8f2ccbb40d207e243ba35a318929a82d0a2ca22ff73200b04aa5b8a98e
30c3b176251e31db30022ffa184c326d2ce12ae930372d8b3352b13fb0031fdc
2c3bac22b7ffb09d28462e6496c830682355b603b06a9d912487a808b035a9b2
31f5ac62b52931672dc92b2a1bb029b09fa7b21e2d7c29952ed0a002af75ab6d
2edab11eaf042eef281b2a05a16a311f3022303f315125e925afac3cb309b061
1da6b4e7b050ab069c262d5d281c301431ce2df72f872fe7a33cb57fb20cb3f3
acd7b584b520b526168822b81ea42c572f51b1ce323e2cc62624b52cb446b0c6
2928b165b51bb3fb21c6a9caa84f2dacab8a2c17a31f2b5d2cb9ac0ba5a8282b
3033b21eac7026e12df32417209b2d23a13f2be3308524672e88a89dacd22924
1dfbae78b5312890a257324828602d17274cb551260124ed2faab402ade9b050
31b5b20a2b17aeb42e1629b926582ed7283f2cad27bd311f3360b19db2119d36
289eb30b2e7b2dc52bcd220ea48e3079358ba33f32cb9b8f31d5b1d9b4b1ad2b
a4bbb31830d332cc2bce272a2361315e33f535c72e21ac2f2f42af34b462a981
a869b54cb1a4b24d306c2d9b258930b63344b194323e9e2b3068b33db5deb113
2774b1fdb6d0b3102e7f30b4a8882ca6ab37b315a9a4282c2e2faf4cb047a3cd
2ee1ac12b69eabfb2f262d3321df2a69ab0db67a2c2bab0d2880b03c9d032da1
2e2aadceb584b41029b9337b283e3418b058b07aae912e4a3107b29fadc4b09a
2c03b05b2d3031fe29ac303a270634c53321aede32482b69353fb3e3b26014e1
280eb1b23436a7a43094294e206e330931592d1b302830ba329daf26afafade4
2f8cb0b635c6317d308c3185a186310f32491ff8306f32ea2c50ad56b1f7a8e3
2825b63cacabaebf313e2af3a16829272c87b0e12a9625e7302ab338b6692844
2d0cb110b66eb0172c652e22a84b2f7fa7deb836315230ec2e0bb3b9b0fdae02
2c05a1f2b36baf122f87309c25112ccd2c59b69334fb2cf8247bb01e2e732758
aec6a5e6b367b59db19c344da7743155afd8a94db2222d71a22bac032d5ab274
ad5f272a32e332eaaf2c354226ab33d110612c6b2444303b2d8db0a32e48b3d7
ad12b24831c8b43f1fb63360a8562dd52c63a5ce25a032e6295bb770b09eb600
ae28b28d302528adb1c13117a8042c123328320b29d62ed0273eb237af2db48d
27a7b224b064b223ac503405a80630fc2996b21a2da513ae2deab08ab02db0af
2ef19b1f2be02fa9288c313028712a33a22eb5fd32c933dc2880b3a12fba9e22
a921a735b17fb0faa80a3537279328dbb2e7b46f92853097b071b4212c3fa98e
ad7f2576b124b4a9ae8334e926f63128b3e92dc72bb93211acb0a99c2c05b0d7
b20725a52d2622efb3df343e9fed345dad0032a9b0dc29f7ad1fb43e2aedb3eb
b3fbaf8b2f6fb03faf5d3440253e2e96295b33ebaf1534deb0eeb413af28b5de
b48aa985327335a4b41e311724a227d32f222febac1a2fe7aef4b3a2a9b1b4a7
b448b2749d06adf9b3f4359c252d319eb06caae4b04e342babc0b347af68b433
b2c3a9b333f1a067b2432970a8069ea4aedcaada9377326ab050b24d2a63a7c6
29d72c58b01fad21285a349c277e21ccaf8baa8fafce353ab0fab36c2e6e2dbe
b4e52d3f2a55b3fbb5533624238b34ebb1ed3145b32730c7a56ab0102c14b41c
b3f69e5d2f302c01b30e30a4a08332052db9a6aab19c31721af6b25b2c4fb218
b295aebe3485285fb1f4301222a03028308f2ff2b46b32132d01b357ad9db513
b18cafd834bf34e4b14c332027982d87ac8aac76ae0b32bd2297b548ac03b4bc
aeb5b02d2ef0a06bb1243323a5c0331db2543072b26936b52fb8b5b1aec3b366
b5032e4f2f36b42db1752d9aa13d2a88a57db41fac7c2e1cb02aac652d99b175
b0ea2ec3246f2b82b25635f5279d2ac2a613b093b6fc3737ad11b0ab3077b026
b26b2e2235062a70aceab161a7f3ae5da7652eefaf5cb11faf5930942df1a904
af429491358aac9faa31ae4796eab085acf32469b217b153afcca5ad2988a8e6
b0b7290a2f8baee8b06723aca337aec1af789452ac14a45cb00b2cc72e921f11
b1fb307134002f71b15cac20a852b1bab1713470b05d307fb2cd33442c8429fc
b0f93229310d2df6b07eb067a7ddb357148a376baf97b459b38b32942e52ae45
aa242cdcac5632f21bb2aaa72835b1bc9e90a89caccaafa4b1672f25a4d09709
b2223209a580b0a4aeadaed5a3d6b1dfaaffab14af17ae77b24f30fa2f26a972
abfc2caf37b23116136caed22429b0ada564358c2e2927bba86e184231d9299b
afed2c3934f2b186ad36a7802763acf2240a3202af80a52eadba206b30bc2c8e
ab0031ac3054ae37a4e0ad7c2056b05bafffb02bb348aabaab4329f9315e3065
a1e8358a319d2b7c2334ae191fbab157b166aed1b0bab1f92c1835743361344a
3039353f35bc3524a0a3a626a132acdab052327bb1b0aa85a57935383475303a
ac5030a4352633651ff02c7825eba87629f0a141a9caa5ffac8b2ce629c8a0a4
aeae30702ed3a92caec7a4d8258caf6828909e9fb081a8dcaed82c49276eaca3
aa41306e34dfa66caab5b117a788ae06254635df2497a3faaf5f33fc2e112e8a
b3233216a7ec2b53af71a6c6a544ae5dab4aadf7ac67b290b249321630be2530
a82b3253af96acdfa81aa22da1bdb04fb5911749b3e519d5b16e308a3563285f
250034a3b072b280aaf4a88027d4b355b3c0b64faf4e2c2eaf89301e343a288e
238d35de309131c9b16bae80a4bbb25ab2733138b18d251bb1153281368b30d7
a81d30c336f432d5ac48b04da458ac8529ed317a2751a98db073306630399d98
acc22b3035dd2cebae13acb11ab6abcd264b3599acf426c0adc63024a126b0a1
b08c301835bd32cda37bb2f397f8b4be2daf31052bccac3eb122332c2edc2e81
ace230a2aeafb02face0aeba27abb3ebb2512f43b158adedb526344131711a59
a6cb327ab446a4a5afd2ac05a842b1a3b11dae2ab15ab23ab24d309d302a2f74
add230bbb4fab161b292af882485b09eb2841d5eaf37b2faae8b2b1c31002cbc
acdb360b22562eedb2f6adb12671a810abbd30ad97c5a981b126318e36dba941
ad5a2e89367931cba61dad799fcdb0632a7b3811b098aee2adc433322ecf2960
a8ec244c331a2f72aa5ab094175aa786a8b33693b414ad49a3b93210ad5ea85c
2c3025b9336a352931c2b4bea671b0902ff829133153ab59267f2eb8a80b3274
2c05ac26b276b390318cb5002830b423a359aa662298b147ac303242aea73457
2c32320ab28e3380a984b221a5d7adeeab6c2863a664b420a201368831353643
28d13279b0d4a83331abb1ce0e5fabfab343b091a539aaf0283033d1308f346e
a58931853163317d2befb2b42698b0109f143215acafa4dbae872f6130c82f36
b02891c2a865afac927cb13d1a90a9d7210235ebb3b7b359ac2d33f4ac7322dd
2c91243130a333022c4eb4522758a8cd33ac33eea90fb1923031338ead9d2b75
2daca04a301434a029e9b4a6a17eb147328aaf8da845b1b52d412cf7ae593040
32099985ad399eb8340fb3f3a921b3b32cf7b1ad3027ac402ac932e5a5473414
33972e46b04831842e7bb4332852ada0aaf8b3a63032b5963083343b2f4c3673
34d92e9ab303b53a3438b0a12592a462b11db0952fbab09b2f2533d0294633b9
346f32e1a82a3092325bb5f32785b1182fa829272eabb45e2b0e33ea300632f8
32c12701b1fca2d63201add427ff1dfd2f7c25a3a5ccb366318a3227a9cf2c6c
24acacd7307d2a3d204eb454a7571e6b2ac92b53310bb4d43114327ab04fa5f4
3506ab121cd332ee3511b5a7a7a6b5e23094b1d331c7adc52af52ce5ad7b33bc
342da60cb08fad683431b175a919b244a8b425c72ffab178a2fe343ba9143305
33f22bf3b49d174a3038af87282db0d8af4bb0a2341db23aafb1347f2bb3343d
30c32e23b4cbb5752fd8b2241e06af5c2f002e322d65b14725a4357b2dc03526
2e682ecdaf972b733200b41418bdb3dc3209adc331a1b634b0e335152eaa33ff
3444ad3faebc34e83109aec1a9fbabb21967340c2c4cae77303c2d85aaeb3116
314db066a81da7c131e4b6692416aed22c272f253769b7462bd032a3acd030e7
